@@UNKNOWN@@
[cls]
[sep]
the
,
-
a
and
of
.
'
to
s
is
in
that
it
as
with
##s
an
film
for
its
movie
this
##ly
but
be
t
you
n
`
on
not
by
more
one
so
at
##y
than
good
from
like
has
all
his
about
are
out
##ing
un
or
have
##b
too
rr
up
story
most
funny
l
##rb
into
no
comedy
who
well
does
characters
i
bad
time
much
best
just
can
if
life
very
##ed
what
##ness
some
even
love
your
will
##d
their
little
over
way
fun
new
which
been
off
he
do
us
make
great
cl
work
any
re
enough
there
drama
never
only
##less
made
humor
action
director
movies
heart
better
makes
something
through
own
was
they
would
##t
her
##ful
old
many
plot
we
real
##able
see
two
really
self
could
down
##er
nothing
how
other
entertaining
far
performances
con
feel
interesting
##iche
##es
sense
films
audience
character
original
##ble
being
without
first
watch
people
every
long
may
such
look
when
cast
kind
world
thriller
end
under
should
##ity
screen
still
performance
##e
me
ever
often
both
family
them
hard
big
year
worth
man
script
acting
:
another
##al
right
while
compelling
also
human
\
those
dull
clever
minutes
get
few
full
di
hollywood
go
dialogue
ve
because
less
##ish
##ic
##ive
rather
moments
comes
##o
smart
might
##r
art
after
sweet
romantic
##ous
fascinating
de
emotional
pre
##ism
moving
quite
had
actors
picture
almost
back
material
cinema
tale
special
##nt
st
care
my
seen
high
give
things
ca
visual
documentary
charm
watching
itself
before
worst
our
##od
here
between
these
find
were
take
lot
pretty
sc
low
yet
least
scenes
##l
laughs
##ie
seem
star
fresh
entertainment
enjoyable
##ling
seems
inc
half
engaging
style
american
powerful
flick
b
solid
wit
feels
young
works
mind
imp
music
ultimately
cinematic
times
;
making
amusing
war
ll
piece
kids
mel
/
come
keep
beautiful
thing
going
direction
together
years
comic
true
sp
laugh
perfect
intelligent
same
energy
takes
anything
silly
where
strong
though
flat
charming
video
ex
bit
##tri
dramatic
fans
suspense
qui
cr
wonderful
##ty
subject
dark
experience
surprisingly
did
intelligence
point
sometimes
enjoy
away
him
she
part
show
again
##pl
short
why
actually
history
gets
face
summer
dumb
romance
gives
per
women
place
en
light
power
three
sad
##ers
genre
whole
ho
idea
##rama
mean
feature
around
rich
##der
hilarious
theater
satisfying
want
##rky
nearly
d
looking
last
spirit
screenplay
fine
once
hour
beautifully
anyone
narrative
truly
classic
##re
done
sub
lack
dr
children
premise
simply
po
familiar
rare
w
predictable
##sy
horror
mis
obvious
manages
leave
##ry
written
##h
##ally
insight
wo
writer
always
feeling
bland
opera
portrait
head
##a
then
boring
day
minute
filmmaking
brilliant
##ten
pleasure
set
forget
tv
probably
gag
need
interest
small
intriguing
effects
think
gorgeous
effort
cold
mess
slow
goes
especially
sentimental
sex
thought
whose
gr
##ter
master
delightful
honest
touching
trying
stuff
offers
know
easy
age
fails
##ious
mu
remarkable
say
run
cheap
talent
terrific
coming
nature
dead
formula
modern
subtle
memorable
ad
top
##tious
becomes
complex
##te
past
##in
deeply
##vent
##yl
impossible
ind
thin
hours
fl
red
tone
actor
matter
##ved
since
g
?
visually
certainly
lacks
##is
lu
fi
imagination
##ro
ins
soul
adventure
##bly
stand
instead
filmmakers
level
co
und
series
thoughtful
##ce
culture
ideas
##ted
study
joy
crime
turn
weird
everything
cute
sure
must
everyone
m
##istic
put
title
##io
middle
serious
##st
soap
##est
exercise
##ably
black
beauty
wrong
tired
slap
men
##py
med
oscar
simple
easily
el
##i
cool
already
become
car
gentle
##ler
perfectly
jokes
##le
artist
personal
def
project
left
filmmaker
earnest
fan
home
sl
girl
lead
himself
audiences
camera
woman
eng
ambitious
excellent
stories
una
death
convincing
storytelling
appealing
psychological
despite
likely
ending
talented
remains
##ist
images
moral
stupid
##us
impressive
delight
french
act
beyond
line
##ies
violence
above
##ting
ugly
list
next
##ming
play
each
##tive
taste
tragedy
class
ted
completely
tr
grace
##fu
nice
creative
shame
book
##ross
looks
difficult
non
refreshing
##en
able
warm
ride
winning
*
recent
concept
##tic
##ant
quality
none
passion
live
absurd
##k
social
shot
awful
reason
grand
message
genuine
ways
loud
fantasy
##ima
animation
worthy
emotionally
##table
directed
otherwise
rev
epic
proves
else
debut
sand
drag
creepy
sequel
waste
problem
vivid
rep
##ial
lives
falls
##sp
either
turns
sort
call
important
believe
im
dry
crafted
##fully
plays
decent
success
pl
school
worse
hero
particularly
strange
moment
deep
bel
##vable
##ul
##ome
pay
surprising
having
thrill
barely
warmth
ev
##sm
mr
inside
writing
now
budget
purpose
kid
##man
pro
rock
sequences
res
second
edge
viewer
attention
fairly
ill
##zing
wise
shows
unique
viewers
eye
dog
fashioned
entirely
##m
career
##cre
trans
hit
teen
seeing
ri
role
version
acted
appeal
pure
##ating
got
attempt
straight
fire
##n
political
##co
themselves
truth
painful
running
##con
different
welcome
road
##ate
pop
considerable
hip
hell
eyes
ir
touch
comedies
manner
along
job
af
ni
masterpiece
gross
lost
disney
brain
change
##nn
##id
##x
flawed
fr
skill
john
##ng
successful
ob
historical
heavy
witty
ends
fact
sea
##ding
sustain
##be
elements
##rous
lacking
##ess
air
odd
##quent
##p
!
bring
found
lovely
com
wild
sick
##sett
colorful
seat
poorly
fa
flaws
reality
game
let
##dic
##no
side
bitter
greatest
nor
create
sit
##ent
sharp
against
##pu
ra
uneven
##earing
##c
##g
thoroughly
during
##mp
pictures
li
mystery
four
cultural
ta
adults
##eri
working
##on
exploit
view
recommend
##va
na
breath
lame
sh
tries
##op
shallow
trip
boy
happy
inspired
mood
highly
mostly
surprises
scene
neither
emotions
satire
period
open
cut
scary
##cend
tragic
getting
journey
hand
novel
10
##ingly
pace
##ear
help
provocative
tell
##pressing
90
##ur
night
blood
##ss
frustrating
##gent
##ance
try
##sh
told
sci
2
ya
rate
days
certain
imagine
leaves
em
effective
##ation
complete
dream
playful
endless
si
##ff
definitely
michael
usual
occasionally
##fl
##off
poor
vision
examination
ban
##cr
somewhat
che
gone
production
triumph
##ible
future
elegant
exciting
plain
##enia
depth
approach
inspiring
knows
monster
delivers
intense
imaginative
plenty
##vet
sa
sincere
given
sophisticated
modest
##ching
doing
vi
##firm
##iness
possible
##th
clear
##ative
water
##uc
##z
taken
spy
int
nu
affection
finally
thinking
wonder
terrible
execution
pleasant
spiritual
##ass
hackney
pointless
whether
close
use
ridiculous
keeps
##felt
house
une
bo
stunning
##fi
superficial
quiet
cartoon
crowd
please
promise
case
##im
situations
actress
chop
##int
share
felt
themes
ne
trash
fast
sexy
tri
chilling
fully
fit
amateur
mani
core
##while
utterly
needs
tension
magic
major
##ny
su
extra
telling
##pe
del
failure
##me
fe
single
##ri
rip
parents
hold
##vo
##nier
##ily
generic
mor
uses
adaptation
hearted
understand
female
poetry
overcome
couple
relationships
white
step
##lative
superb
tribute
empty
final
room
##taking
goofy
contemporary
tires
animated
spielberg
money
##sic
large
##ts
rest
ph
##ze
several
hot
score
impact
ultimate
throughout
smile
date
forced
sap
joke
potential
festival
##nies
striking
guilty
##line
##zy
deserves
taking
supposed
sloppy
##ex
bore
cinematography
ga
starts
natural
free
thanks
h
sensitive
ii
painfully
##him
city
amount
##war
bi
##fa
twisted
ensemble
##stick
##ening
dec
twists
college
rec
poetic
bu
derivative
excitement
surprise
##go
##ve
##rigue
##right
remarkably
##mir
extraordinary
delicate
strangely
##pid
pacing
captures
called
realistic
episode
guys
intimate
situation
york
genuinely
unexpected
respect
offensive
fiction
evil
popcorn
ago
energetic
predict
meditation
add
spirited
among
expect
form
disappointing
##lt
start
du
##fying
interested
##gina
astonishing
urban
wish
##tory
today
playing
ability
remake
##ignant
o
##omp
name
wants
annoying
##oh
badly
ka
typical
##sc
spectacle
treat
tear
##que
##uous
vital
hate
##ens
##beat
gripping
##an
merely
motion
nicely
pu
clarity
bog
hope
##gan
##ni
ina
huge
fantastic
across
behind
problems
pieces
damned
gay
mo
##xi
words
meaning
memory
brings
chemistry
sum
won
equally
##ough
ones
guy
##ept
humanity
br
loss
inter
overall
x
skin
sign
trouble
offer
politics
bright
provides
issues
succeeds
capt
##ize
post
sim
sets
##cap
based
events
flash
stale
length
##cing
absorbing
tu
liked
alone
stars
marvelous
##rating
party
justice
indie
crap
quick
served
country
exactly
##iest
hu
allows
pass
##oc
authentic
balance
artistic
substance
viewing
business
slightly
wildly
sw
value
sketch
##com
standard
##cious
artificial
delivery
living
vulgar
achieve
latest
someone
number
storyline
used
force
char
##voking
humorous
child
bizarre
saw
glimpse
pic
frame
win
##sta
absolutely
##ick
awkward
##cating
pathetic
promising
wasted
weak
##ph
document
metaphor
mother
voice
pan
comedic
filled
##or
alive
rarely
minor
##ip
lo
ages
america
##ities
##ch
attempts
except
##ging
routine
humour
e
##ine
anti
apart
sports
casting
##do
##ti
key
hardly
sides
murder
disaster
##ad
am
spectacular
deal
universal
average
friendship
##ion
extremely
##ne
dazzling
da
paced
exquisite
gen
target
horrible
shoot
steven
##rid
god
##ica
fatal
suffers
au
devastating
talents
battle
clearly
directors
entire
pun
questions
shocking
shots
superior
##sw
ab
avoid
devoid
pit
philosophical
realism
minded
sounds
visuals
maybe
performers
sitting
fall
credit
treatment
pleasing
amazing
fat
##len
chance
mildly
nasty
lazy
preach
extreme
##oca
mix
twist
twice
person
relationship
seriously
runs
finds
company
slight
shape
product
british
constructed
cat
holds
##ign
##hila
ki
strength
k
violent
begins
incredibly
sheer
late
service
roll
##ized
##tre
empathy
weight
sexual
##izing
handed
detailed
word
##gal
screenwriter
unpleasant
numb
ing
killer
##lessly
channel
##ook
camp
dish
ju
puts
achievement
##fle
##berg
&
##ment
holes
##tly
die
intentions
previous
##cy
##ci
dimensional
computer
alien
##sen
green
toward
places
conflict
sequels
science
##os
opportunity
repetitive
irritating
##da
doubt
lots
##all
bold
##ons
television
##nce
##les
until
remember
sen
loses
figure
sq
paper
##ha
crisp
points
allen
reveals
grant
yarn
affair
americans
editing
match
attraction
process
treasure
crazy
##ere
blue
##v
read
ponder
##bl
##don
corn
fare
escape
sitcom
break
super
hair
yourself
virtually
bra
means
stomach
robert
fears
cause
##ot
perspective
ms
girls
##ner
mark
##bu
##qui
created
wall
labor
##ier
faith
conclusion
##out
clumsy
va
den
heaven
pe
laughter
cruel
cha
sensual
creates
shock
stock
cu
sound
sleep
commercial
##ane
intensity
cop
crude
wind
deliver
##ring
raw
entertain
oddly
##ba
bottom
chan
lou
##w
se
price
tough
##gy
usually
grade
##by
goo
la
##led
##iating
clue
unnecessary
spark
##cus
franchise
damn
##ka
gi
david
consistently
ideal
dim
courage
##umb
admire
brown
persona
shooting
##em
aim
assured
fear
wife
dreams
leads
##xious
waiting
wanna
check
season
others
##ta
although
false
trick
protagonist
sequence
older
generally
##am
favor
blade
##ard
confusing
profound
plotting
##uck
five
prep
##per
detail
vibrant
discovery
fish
wide
fake
##wr
decades
conscious
packed
##ge
particular
turned
behavior
insulting
ham
turning
smug
hearts
sour
##as
however
glorious
subjects
overly
path
creativity
ups
pi
credits
frequently
gangster
conventional
jar
talk
splendid
mud
r
direct
##ber
conviction
wedding
flair
fashion
##ving
growing
state
members
cult
sensation
atmosphere
##hm
##time
general
chill
including
crack
bite
identity
studio
arts
bother
intended
belly
zone
sight
tom
ko
ja
precious
shine
accomplished
##oon
enjoyed
para
positive
##ary
vis
##cera
involving
struggle
miss
noir
near
heartbreak
bullock
excess
##ra
various
holiday
##hed
needed
##bo
##za
effect
bond
##ac
daring
inspire
unfortunately
worked
overs
frank
kidd
setting
homage
##rs
##nd
beat
quickly
gifted
happens
emotion
villain
gut
grit
attractive
totally
soundtrack
possibly
##sible
wa
rendered
upon
theme
lived
revealing
reward
2002
dem
laughing
lines
punch
row
grown
1
complicated
capable
largely
##ab
##ated
##bro
tender
##rri
stay
damage
potentially
apparent
##ian
inspiration
glory
mill
##oy
##pired
##ene
mixed
##ero
era
challenging
##rc
band
##og
##shing
##ath
mainstream
community
wicked
##ax
##sty
##su
pull
credible
id
spent
bleak
personality
characterization
acts
commentary
20
numbers
##ric
##ins
j
pal
exploration
relentless
handsome
enormous
##it
public
##lifting
deadly
##ddy
impression
marks
insane
surface
##lin
##oya
es
onto
des
realized
brought
wry
finding
essentially
##pi
central
##ft
##ru
stereotypes
app
levels
##ct
##eet
sm
expected
frightening
ordinary
week
##mer
drive
##fus
lush
##dor
pile
##ost
gem
quietly
hi
dragon
dirty
forgotten
street
haunting
ram
team
convey
body
##fo
string
rush
vehicle
further
footage
stirring
outstanding
supporting
accessible
course
aspects
murphy
enthusiasm
exploitation
ice
##at
content
structure
##ks
slack
jackson
##ela
produced
front
group
mature
intricate
grief
##ivating
revenge
cho
pleasures
bar
##ec
despair
third
outrageous
developed
excuse
awe
terms
event
talking
george
animal
soon
frustration
designed
snow
missing
##laus
pretend
hits
space
mention
food
industry
pulp
##ache
##tension
king
##ony
main
##bling
distance
##hood
resist
##isi
hopeful
##rat
provide
pleas
pain
##un
beneath
thematic
stop
machine
present
drawn
starring
amused
##ll
deserve
intellectual
##vin
involved
##ute
carries
cell
affecting
sac
lump
c
smarter
dysfunction
sake
martin
move
loved
##ol
fu
##eti
##u
reach
games
finish
queen
prove
##zzle
charismatic
9
lets
##wn
niche
bored
chase
biggest
suffering
##hl
##hand
male
deeper
blend
filmed
pat
delicious
##ned
tells
##cha
##el
##ors
reasonably
##vy
mid
lang
nonsense
stage
##ancy
giving
fill
prof
junk
stu
##tro
charms
observations
sha
james
##aged
vampire
##rew
tortured
said
##cky
songs
adult
giant
##pp
boys
##ona
hoffman
##vers
stuck
limited
##pt
somewhere
wholly
##om
##bas
slice
##lu
sugar
appreciate
uno
##ck
erotic
nowhere
missed
earth
walk
south
utter
##lo
##eva
##end
foreign
larger
control
sweetness
mono
faithful
notch
##um
basic
embrace
##usly
grande
directing
##some
##sky
passionate
wears
winner
digital
directorial
meaningful
victim
##ar
##men
##fold
appears
brothers
potent
compassion
office
rhythms
foul
guns
##ani
##has
##ums
century
##gger
der
unusual
lust
addition
collection
##ciful
father
sara
details
brutally
powers
##urable
pack
dvd
##cc
root
happen
knowledge
##to
bears
answers
results
drug
grow
source
ag
##my
##rks
presence
ro
spite
lady
rhythm
chaotic
offering
##hen
reading
wilde
comfortable
##ls
eyed
boo
##bility
peculiar
combination
##ek
##tou
##pre
values
edited
bunch
graphic
whatever
##promising
##fest
rough
ap
resonance
wait
christmas
biting
competent
save
##sat
peter
respectable
minds
relatively
##ional
##oof
eventually
spider
timely
national
straightforward
flu
imitation
cost
hugely
simultaneously
blockbuster
##lia
spell
odds
logic
sell
chris
mayhem
ahead
washington
te
pale
##ese
sink
neat
changing
bigger
pitch
tears
sat
spin
woo
pin
filling
wow
##ginal
begin
##uan
##lika
theatre
honestly
bio
buff
ami
loose
##sa
mouth
land
represents
necessary
generation
common
disco
tiny
wi
##gi
##sho
substantial
gradually
skip
capture
jo
##rt
increasingly
grows
dare
beginning
##omo
ba
stereo
rent
yes
desperate
ang
sweeping
divert
ed
strain
unpredictable
##ton
##age
ambition
emerges
##mi
##screen
grab
lawrence
lau
trademark
total
jolt
cross
pair
jack
nomination
delivered
considered
musical
##ered
choices
timeless
##uo
##lessness
##tal
cynical
layers
hands
bang
poem
nightmare
merit
##fire
##falls
##lus
##onic
stil
release
degree
dying
oriented
integrity
ha
williams
exceptional
unlike
##dy
faced
ground
presents
somehow
cal
##ia
development
standards
sparkling
pulls
police
inn
##play
friends
barber
scar
realize
blown
##cut
loves
saturday
adam
connect
##writing
japanese
##rd
instantly
san
wear
##ys
technical
innocence
pity
##dle
##up
blank
sadly
eccentric
imagery
cheek
fairy
##llin
lyrical
signs
richly
fair
##ncy
example
color
wren
predecessor
##cable
racial
condition
ant
determined
##rily
sympathy
loving
proud
sadness
##chy
executed
patience
##tes
##ora
wars
type
##hesive
folks
##vances
##izes
marvel
delivering
blu
finale
##oo
monty
honesty
random
guess
witch
crush
portrayal
teenagers
amounts
flavor
rot
thinks
##force
early
heard
existent
fearless
notice
##ral
wanted
mixture
##long
scale
kissing
nerve
ego
maud
italian
je
##verse
shakespeare
##ils
committed
concerned
society
copy
essence
abandon
sober
claus
favorite
insights
magnificent
##uri
dramatically
meat
features
hop
question
serves
territory
##ste
endure
leaving
happiness
shelf
spot
fate
faster
##dled
##gio
cheat
happening
##erence
stink
creating
jones
immensely
myth
cutting
willing
whom
##ki
freaks
pa
adventurous
feat
paul
$
proceedings
surreal
##ey
square
harrow
lesson
##nding
note
lee
played
desperately
families
follow
mala
appear
u
ge
traditional
sneak
ar
##ability
theatrical
##ise
bal
aged
losing
ghetto
toss
inspirational
##ged
##ull
friend
##ea
recycled
propaganda
convinced
##se
award
engaged
candy
##na
disappointed
spirits
disturbing
confident
teacher
song
slick
below
##dro
return
ryan
boom
burns
par
endeavor
hum
exotic
rom
##tion
enigma
broken
##boy
##zz
fight
z
terrifying
##ete
forgive
shake
reign
rank
efforts
heroine
bound
teeth
mild
mistake
##hma
hastily
##ap
shaped
##rel
broad
touches
fights
teenage
complexity
desire
spare
##for
tradition
artists
succeed
demanding
##ama
known
hitchcock
generous
davis
indian
depiction
test
intermittent
polished
ball
juvenile
gang
##si
mysterious
comfort
construct
relies
seam
##fies
##tale
messages
coherent
topic
african
mere
ze
friendly
magical
local
richer
##tra
bone
##rdi
slug
##uring
##ates
convenient
##ified
terribly
disguise
##eni
##pic
analyze
wave
relief
8
store
pick
icon
keen
ticket
son
luck
gun
broom
longer
##making
dancing
exceeding
dignity
hopeless
##pan
ep
##ype
celebration
gender
enthusiastic
box
bits
significant
satirical
encouraging
##sive
resource
creep
80
ear
##ball
finely
##eem
tack
justify
toilet
consciously
layered
understanding
##mo
theaters
##ans
moore
perhaps
timing
landscape
spend
##res
sweetly
sentiment
fisher
##oke
sane
tremendous
##lan
##uf
carried
variety
##ag
structured
##sti
knowing
##rm
asks
##lor
makers
fluid
equivalent
##like
revolution
##li
scores
##sl
apparently
hitting
lively
kevin
rude
dreadful
distinctive
thumbs
unlikely
ma
##erson
bag
tar
measure
failing
demographic
##osa
worn
disappointment
vague
##ical
walked
communal
locations
##di
literary
testament
50
holocaust
mile
tin
##ios
stylistic
refusal
language
irresistible
##ib
cheese
adolescent
aching
p
report
demands
loft
intro
handled
craft
equal
portrays
##ara
inevitable
deception
##nic
ghost
sees
##lling
hack
##ifying
seeking
##pro
##cal
movements
##pr
seek
dedication
marginal
##wd
ce
satisfied
looked
putting
hopkins
stunt
##light
english
expressive
gu
experiences
##pers
crimes
startling
##ord
inner
christian
poke
strike
result
throws
##pa
importance
##sit
tara
count
acceptable
##ool
##cting
friday
rewards
fierce
##zog
secret
kn
ref
somber
breaks
##sse
sympathetic
dickens
problematic
irony
quest
flop
##mm
choice
##lom
constant
rises
image
##rk
pseudo
hallmark
fright
motivated
seeming
##ooping
blast
husband
overwhelming
eager
harmless
complications
fix
plotted
remain
##gli
wooden
##back
tongue
##oll
helps
##hi
focus
3
##ture
##iss
celebrates
expert
ravi
##sco
##oge
##ma
sy
mi
started
##if
singing
flow
kiss
semi
##lter
nevertheless
##ces
becoming
inconsistent
solo
##mu
required
sublime
roles
desperation
embarrassment
subtly
reel
brisk
##ality
##red
touched
curiosity
verve
suck
##eptive
belongs
clean
##her
psycho
professional
garbage
tick
edit
suited
##ssi
##typical
hole
chi
bringing
##going
safe
##ean
intimacy
jim
##ith
draws
##dis
##pol
center
caution
verbal
morally
lend
paint
ridden
strikes
supreme
sly
rise
bow
##he
##ren
highest
##pit
abstract
surely
harry
connection
buy
explore
##ude
scenery
players
uncanny
al
smooth
##bell
met
##chan
childhood
hideous
private
##tas
##pes
rising
ask
accomplish
guilt
park
guessing
##ju
salt
##hing
##ect
tight
30
trailer
##bri
younger
belt
tricks
scattered
kill
ran
dogs
##unk
seconds
splash
elaborate
describe
gold
warning
##culture
ambiguous
engage
scenario
mat
urge
fantasies
beach
accept
ode
chilly
technically
##fk
##oop
useless
afraid
due
100
mac
15
manage
forth
profile
screaming
inviting
multi
rap
blow
abuse
lit
dance
70s
presented
effortlessly
race
ai
fighting
accurate
spring
notion
blair
##lat
poverty
burn
##wi
lingering
parody
alternative
##vor
characteristic
references
staged
##cted
adventures
generate
handful
knock
lifeless
busy
britney
halfway
benign
notes
expectations
iranian
disc
extended
##pper
dynamic
technology
surrender
##fide
came
##town
international
##ida
bomb
forces
##ists
consider
##uil
uncertain
brutal
nation
##tem
shy
empowerment
##ient
express
noble
##lar
ranks
unexpectedly
##den
##cho
phenomena
minimal
fancy
greek
wallace
released
jaw
behold
bloody
sun
paid
##oz
13
within
##imo
throw
##de
liter
##work
regret
visit
display
##so
##nation
##la
indeed
##ogy
psychology
praise
##f
ten
dubbed
##gis
misery
invention
##nted
drown
##ew
pol
weeks
occasional
web
moved
record
secrets
##mina
grey
darker
saying
bracing
diversion
##neer
uneasy
balanced
forceful
mainly
protagonists
gently
##ject
shining
neo
concern
beg
expression
weep
##rated
divine
##ua
##ut
possibilities
victims
martha
##ver
keeping
mc
##fell
##use
appropriate
sincerity
wanting
thick
stunts
status
bear
##gre
alternately
unbelievable
chinese
jason
twenty
bun
porn
caught
scratch
expense
rolling
heads
cage
maintain
fuzzy
miracle
daughter
dash
##ifice
roger
harvard
vs
enter
soft
##its
showtime
surrounding
arc
##ering
##ack
breakthrough
scream
thrown
chu
idiot
literally
plots
er
reminds
slip
##ulo
nostalgia
##oint
buried
##rine
trapping
relevant
obsession
pub
mira
reno
##mas
entertained
ski
f
rental
anguish
flesh
hoping
inform
distinguished
##eit
crank
##resh
eastwood
charged
wan
##hearted
##hr
##eak
context
lie
##vi
adds
parts
feast
myself
actresses
flourish
gore
doo
##uber
inherent
carefully
alabama
##ou
evening
embarrassed
##pen
bill
sk
drugs
##sten
static
held
##oit
##yp
drop
accents
glass
pow
shifting
momentum
##ker
##bi
brit
factor
text
##hin
responsible
ava
limp
##ffle
##ggy
redundant
rushed
madness
news
pot
parker
window
##il
memories
understands
photography
opening
using
##tu
##ndon
##ron
destination
delicately
driven
woody
lifetime
stands
argue
##bles
##field
stays
cape
finest
psyche
costume
swallow
thrilling
##ntal
prop
##bs
eat
catch
barry
emerge
grind
lunch
politically
suit
##uen
western
##ow
ser
##ctic
went
damaged
maintains
##nia
fly
##gen
##para
showing
kong
cares
calm
producer
properly
##ntino
saving
winners
oh
travel
serve
design
##phobic
dealing
dangerous
gel
chew
videos
area
##vino
attract
mach
harsh
dawn
capacity
personalities
##vel
shen
backdrop
milk
hollow
wondering
##ots
built
pie
##cula
zero
strongly
baked
disgusting
##own
photographed
spice
##ping
##ern
instincts
term
##lity
loneliness
swim
letting
devices
learn
deserved
anne
marriage
##ong
##ction
bree
draw
providing
ring
sucker
4
innocent
rug
reminiscent
20th
##ky
speaking
martial
ballot
##head
existence
planet
returns
gangs
##ser
##vant
leon
##met
fail
##mps
qu
wander
morning
humane
##press
##ura
double
popular
confused
za
precisely
unusually
mike
cheer
breathe
##iously
brooding
format
##ud
atmospheric
mug
similar
uncommon
traffic
##bers
fits
knew
##actic
classical
##jin
consistent
dust
smack
settles
ec
pointed
thousands
obstacles
##ue
slowly
##ave
triumphant
market
hall
table
##uation
##mist
##pel
##rds
por
firing
patch
insult
##das
greater
dramas
famous
proper
seats
urgency
##ones
encounter
lil
savage
##ui
attitude
##hy
##imi
##ties
prime
decidedly
creation
positively
buck
convince
enduring
sudden
vein
existed
ether
##eal
wrapped
daily
redemption
outside
torn
sister
cover
authority
cerebral
exceptionally
gifts
##ings
companion
current
pen
rating
##written
##ibly
##ope
historically
push
constantly
needles
##eo
documentaries
##jo
seven
##uming
snap
##ulsive
##lent
aside
cy
vanity
conde
##tine
emphasis
buddy
meaningless
pet
##ceptive
##card
##ps
trapped
wins
ache
academy
##itative
santa
##ented
station
lopez
op
pokemon
collapses
corner
##ob
##unda
##och
boat
van
rapid
speak
replaced
##bit
##ster
fond
remembered
ironic
shocks
aims
suggest
altogether
roman
born
eight
movement
credibility
vintage
##poo
objective
junior
lovers
et
hypnotic
admitted
fest
expectation
pathology
##tle
happened
bro
##ows
critical
hybrid
manhattan
intention
jealousy
newcomer
boredom
precision
destructive
continues
cam
##gic
reaction
exposition
ignored
stone
similarly
dropping
throwing
trek
impressed
yearning
coma
bourne
outing
hong
hang
laughed
howard
hunter
obviously
drawing
determination
southern
promises
hint
terror
trees
enterprise
##city
transforms
enjoyment
actual
kicking
brand
tried
bruce
hungry
conspicuous
##balls
chances
ethnic
independent
closing
##uit
##heimer
gravity
##log
following
##ds
##posed
exit
sorrow
loads
##run
schneider
comparison
spears
vain
lower
##ku
conceived
##ency
silver
emptiness
later
moves
build
jazz
##pha
fuss
noise
beast
11
##asi
le
tool
illustrates
broadway
object
valuable
##ndi
counter
##well
graceful
##gl
##omi
##get
figures
insistent
dismissed
heroes
##ill
cable
##du
tour
crucial
souls
wr
recording
wreck
##ef
domestic
insurance
lesser
##fer
clash
nick
piano
melancholy
brother
elegance
dev
earn
titles
advantage
tim
refuses
midnight
##sibility
critics
vincent
##ams
capturing
fabulous
anger
meets
demonstrates
casual
curiously
consciousness
send
student
undead
##ris
severe
ended
extravagant
notable
curious
presentation
necessarily
foot
searching
##ile
struggling
##ves
naturalist
##che
stick
jade
tech
innovative
coffee
irish
barrel
flag
stiff
stealing
##tick
irrelevant
phone
fisted
radical
frail
creature
steal
observation
contradictory
pianist
tee
stumble
duty
album
longing
##won
classics
##tan
showcases
morality
han
angry
dear
##down
demons
outs
remembering
grim
##ig
##ite
decade
col
denial
##ace
stretches
doc
##app
stupidity
recommended
secretary
choose
##uel
nose
ti
russian
recommendation
holm
uncomfortable
##bid
ready
revelations
prefer
order
##mble
##land
reluctant
pays
##bilities
jackie
hugh
inhabit
crisis
blind
##ule
shanghai
naive
madden
comedian
former
admit
effectively
##bble
easier
##llie
genius
##pire
ripe
##lad
##ically
villains
eddie
helm
translation
88
rape
##pressive
obligatory
mole
ruined
cobb
schwarz
combined
distant
winds
difference
speaks
primarily
daytime
anticipated
evelyn
ultra
soldiers
recovery
recipe
loop
fable
##val
sensitivity
bed
anybody
chick
##ina
stylized
benefit
controversy
torture
ac
background
scripts
##sin
##ification
wet
revelation
jerry
notwithstanding
halloween
allow
conservative
hide
frozen
susan
holly
remote
aware
hey
austin
guts
righteous
mir
##ses
added
##gm
improvised
richard
account
fallen
willis
##ego
definitive
moody
generated
predecessors
##kes
ace
blues
kung
renowned
lavish
absolute
reckless
##lete
aggressive
##aring
##ilo
mundane
madonna
cry
pool
misses
equilibrium
clocks
elizabeth
manufactured
##lum
##eres
undone
chuckle
physical
birthday
whale
doses
scope
##ust
element
paranoia
reputation
killed
burning
survival
fabric
town
influence
legacy
closer
somebody
eric
kaufman
carry
ease
freeman
tap
ana
nicholson
illuminating
##ger
penetrating
##rre
musicians
incredible
tense
mad
##hir
##matic
pedestrian
rocky
higher
caring
pulling
setup
organic
surprised
legal
lightweight
groan
glaring
shrill
grotesque
valiant
shadows
baby
freud
oppressive
wonders
matters
specific
xx
dawson
##urn
evident
charge
humanist
surf
luna
lip
hurt
adequate
dip
pr
pantheon
esther
##rg
lighting
info
##cial
##guide
gave
produce
##aa
sinks
slapping
40
clown
idiots
##edge
##lim
##chio
transparent
allowed
mas
arnold
##aro
refugees
jerking
cuts
hoped
parade
impressions
##ped
##sel
spotlight
lion
directs
slippery
korean
ala
struggled
believing
million
fragile
##real
phones
issue
sacrifice
denying
fills
##ub
dig
destruction
plum
##lla
aging
ancient
books
cultures
search
concert
##ug
west
horribly
grasp
##cu
eerie
carol
expose
punk
formal
hat
12
chateau
101
rat
spade
saga
upbeat
##lib
##ishly
##gra
explosion
monsters
##und
heal
bust
hatred
solutions
hyper
inducing
crawl
disguised
category
glossy
##pton
##ym
whimper
confidence
amazingly
esq
growth
fourth
appreciated
naturally
flashes
messy
##udge
wearing
##ising
##oping
##acious
sho
follows
improvement
jennifer
##mbo
seemingly
immediate
kinda
##agger
childish
catches
burr
textbook
ah
##rit
dozen
dime
##iti
exhaust
##las
inappropriate
league
##eck
##vey
##mus
button
##etic
##rish
##ders
sharpe
loosely
accent
##dable
##enne
chuckles
##rice
rings
adams
avoids
hear
brave
youthful
lifts
purely
##cent
roots
sin
raised
massive
filming
infectious
unable
changes
contribution
bet
sisters
via
tag
chest
##ues
hank
##one
##fan
bath
strictly
juicy
##mic
folk
##drum
##sing
##ast
remind
##yn
##cratic
aspect
##oche
##iculate
det
japan
courageous
beings
##low
##har
pepper
sol
mary
fore
ourselves
pry
pri
lessons
diverse
##vating
##gs
reasons
kitten
conquer
therapy
educational
medium
overrun
waters
swinging
disbelief
##ental
rum
comical
dread
ralph
portray
parent
monstrous
lunatic
triangle
edition
featuring
focused
treats
goods
##ami
latter
elusive
exaggerated
concession
freak
dubious
card
menace
qualities
ben
##cic
deliberate
collision
indifference
thorn
rain
cong
fetch
senses
roller
costly
six
ballistic
##ever
quarter
clothes
##bar
sucked
remotely
smash
load
restroom
cap
##cated
negative
package
##ened
innovation
##mit
empire
lies
auto
whip
generates
##tor
aesthetic
legged
paints
impulse
##astic
rig
##tell
simone
block
drum
endurance
separate
##eke
dressed
introduction
aimed
pitched
kinetic
distraction
literal
france
tomorrow
bodies
adrenaline
system
##ein
##ns
darkly
opens
kwan
excel
##itt
bin
##lie
ku
neighborhood
gift
radiant
logical
starting
##els
abundant
##tee
squeeze
motivation
optimistic
##sor
criminal
##lled
bull
drenched
contest
cher
tones
##dra
scratching
titular
chord
ties
ellen
geek
professionals
reviews
outer
unconventional
pill
mothers
arrive
dose
individual
brilliance
tooth
listen
##usion
argentine
##umen
##nan
section
sits
trap
##ep
##text
nos
upper
plight
contains
uncle
sinister
esteem
herself
shop
boasts
saved
distract
profoundly
range
ford
##shed
projects
gan
building
opaque
q
reg
watt
creations
##era
prison
sandra
followed
assembled
scare
proportions
lifestyle
tends
develop
nobody
wilson
retro
rely
thousand
slash
##enity
fitting
##ulous
detached
showcase
rescue
brightly
##oli
continuity
stretched
dentist
##han
limitations
##rn
##uth
fifteen
##arding
obscure
##nl
desired
##fly
awkwardly
barney
outta
##gence
##iso
experienced
racist
shu
freedom
##cl
circumstances
lips
sorry
combines
exterior
emphasizes
isolation
taylor
##lean
measured
media
entry
notorious
intact
includes
reunion
ts
interview
assassin
radar
china
##dling
##ovich
##zed
cannes
shower
theories
goose
consequences
feathers
reminder
resemble
##zen
blooded
##tf
##plex
eventual
##ini
mysteries
blame
texture
strongest
lark
swept
palma
##ssing
teens
nicholas
anderson
revision
simplicity
pulse
##bin
##truct
smiling
lift
danger
conspiracy
diesel
##yst
carl
goals
borrow
##tric
suits
pressed
heavily
builds
discover
frantic
##iff
department
atlantic
field
traditions
butt
robust
raise
unhappy
stitch
staggering
##ok
rein
##ike
amy
##lit
##lated
##enting
significance
reflection
defeated
intellect
twin
##pon
##gate
##used
appeals
michel
weave
damon
##hine
piercing
bridge
brat
linger
venture
##dot
mann
leather
##zzling
plus
antics
angle
leading
jordan
##ulation
shakes
uncomfortably
mal
jumps
##ence
screw
##oning
laden
##ibility
##kill
anchor
vu
base
terrorist
animals
mum
losers
sustained
deaths
swan
##nc
foolish
exact
##fied
leak
##top
riot
climax
scenic
legendary
##wad
##yr
failed
##oked
unless
wishing
website
brooklyn
rejected
bucks
##ult
mar
##tial
lobby
promised
guaranteed
tales
conduct
probe
##gree
steals
clinic
##ino
duval
primary
casts
##king
##path
fathers
loyalty
##ai
managed
spaces
##ston
conventions
juice
aus
intensely
##sling
22
fleeting
trust
explores
hara
ears
evans
##ali
wisdom
##tters
ton
wash
helped
##orn
##rac
exploring
populated
heated
##ivated
wen
##fe
yiddish
awake
slightest
examines
uh
##lic
loaded
laid
incident
ass
awareness
flip
wrote
##elle
##ocation
buttons
makeup
bliss
injustice
liner
composition
liberation
fool
goal
bump
support
seductive
strict
flower
familiarity
wallet
lane
##oth
bros
shoulders
##ca
precise
celebrated
accurately
heroic
scott
##ending
mentally
tensions
disease
yu
mental
merits
aliens
embracing
pants
fulfilling
##uis
peak
sundance
sermon
dynamics
peek
##wk
require
disgust
angel
hundred
suggests
amor
says
genres
##iro
disregard
##unt
suspect
baggage
dinner
spinning
##ital
episodes
took
##port
3000
##amo
##fat
##rity
##ney
styles
distinctly
relative
screening
robotic
evade
##mini
mil
contempt
thread
meant
theatres
##hee
dragged
odor
feet
switch
skills
##ridge
cliff
improve
incarnation
turf
##iva
##iful
excited
slim
miserable
pilot
outdated
chosen
##how
51
##ific
drunken
split
mouthed
##alic
singer
korea
weaknesses
##agi
##nable
silent
alike
lamp
reduced
earned
##yan
proficient
improved
assurance
acclaim
lewis
evolve
deals
symbolic
arguments
curves
##sis
hay
##ont
rose
improvisation
composed
yesterday
willingness
upset
mega
immature
asian
painting
##rocity
##aid
grin
errors
anime
sized
##vern
##sas
##gor
ee
catching
stimulating
punching
reassuring
tempting
##we
##ole
import
fulfill
collateral
##oue
demonstrate
cameo
##oss
sided
tun
wake
directly
reliable
scares
##ji
harder
bullets
procession
rewarded
terminal
education
undoubtedly
rattling
economical
rigid
basis
lasting
access
uniquely
hook
devi
##ple
##post
struck
grew
wood
specimen
environmental
##udi
##usions
##gne
##sus
##cit
eli
##dge
participants
schizophrenia
judd
steve
exhausted
develops
sucks
bon
heights
tug
favors
clause
suffer
argent
3d
riddle
awards
dad
ingredients
writers
driver
##rot
##ley
sabotage
pushes
mcc
lens
##ning
crushing
##pine
max
provoke
fade
timed
##ock
bug
feminist
affected
##ori
solemn
##cat
titled
##ailing
etc
##fera
sept
aw
jean
lord
adequately
rouge
##ously
host
faces
bible
pride
borders
types
##ressed
##bor
breadth
miller
practically
covers
19
chief
henry
ji
uniformly
bard
sar
##sha
ocean
manipulation
whenever
caine
generosity
nervous
taut
displays
##rke
schmidt
sleeve
grain
stops
convictions
warfare
induced
neil
sack
patient
##ances
chicago
metropolis
##titles
adapted
prose
club
supernatural
narrator
kick
medical
##media
roberto
kitchen
##ncies
darkness
moods
inclination
substitute
sword
anyway
bollywood
##bra
smirk
60s
chaos
formed
dong
installment
passes
performed
hates
##ria
brief
iron
raises
philosophy
jewish
german
heat
hartley
conversations
il
recognizable
##inking
hill
viewed
zip
normally
worry
collectively
##ament
##kin
multiple
hidden
terrorism
ara
cleaner
communicate
frequent
electric
aspirations
smoothly
enjoying
reaching
surfing
##ecure
suitable
sway
gasp
compromise
stray
##nk
seeks
warrior
ritchie
joel
gear
reveal
landscapes
##fight
telegraph
##lip
complaint
beloved
##nio
##sur
##kovich
attempted
maintaining
picked
cake
bravery
duck
##oney
##iling
encounters
traveler
##gling
##berry
outcome
gall
mon
recycling
##ash
smiles
enjoys
ic
intentionally
##achi
##khov
##ita
aggressively
##lb
anthony
witness
##piece
cod
##lift
randall
lucky
ordeal
mechanical
shriek
##hor
tread
cylinders
wal
mart
drowned
realizing
distinguish
segment
lucy
##key
hewitt
##girl
questionable
brow
dress
ru
##dou
thirty
program
blonde
##lke
procedural
arbitrary
depressed
warriors
knockout
fellow
stuart
##ema
maze
everyday
##insky
storylines
##form
angels
fascination
##lastic
robin
journalist
alert
honor
trim
counterparts
drew
vietnam
conceptual
reefs
enhance
net
confined
##vili
breaking
##hae
##hn
decided
lap
bodily
burger
reaches
aids
harris
bodied
definition
spike
relaxed
scrutiny
edges
##dget
##tila
##ava
sting
##llen
christopher
emperor
molly
ramsay
span
om
transformation
athletes
swear
transformed
##lett
walking
forcefully
95
stud
alice
corporate
todd
##mes
adding
spots
##stle
##dity
underneath
suffered
fringe
dustin
irwin
canvas
tackles
embraced
prejudice
##lls
bonus
mexican
hitler
falling
pains
supply
praises
compassionate
##mal
##antly
abroad
unlimited
don
deliberately
grateful
dana
influenced
##ively
18
##tier
technique
##mat
headed
rival
tame
##bert
river
operative
successor
explode
elsewhere
sul
longest
proof
##stic
rotten
##cite
dual
daniel
infant
carved
testimony
duration
towards
sham
sparse
##ckle
asleep
##flow
crippled
##world
ty
gracefully
##tute
##athi
weary
rob
librarian
admission
wig
bot
stronger
##aves
##cked
##piration
dense
layer
remaining
inexperienced
sentence
placed
dial
humans
golden
drink
member
##pie
veil
canned
sounding
basketball
hotel
circuit
castro
awakening
trace
motions
##ld
##grating
laps
explosions
immediately
##mora
repetition
universe
learned
races
assault
##emi
freddy
european
flashbacks
1958
echoes
##hear
insults
##ttered
##rch
lola
fines
buzz
closely
tam
que
##qu
extent
grounded
##zard
pink
bride
paranoid
ci
von
stroke
carpenter
##ya
##zaki
##ure
reacting
##hot
##tel
arresting
backstage
spontaneous
gibson
##uid
establishes
##athing
6
tel
consuming
levi
depression
qualify
essential
##cies
taps
scandal
seas
cinderella
masses
lodging
trench
vietnamese
centered
denied
downward
shimmering
appreciation
submarine
65
dover
##inate
spirituality
tuned
baffled
##nti
##des
kin
interpretation
##pet
jolly
journalism
popping
fury
discipline
beats
dude
##ira
derived
limits
seduce
established
bam
corpse
colors
##jured
stark
##ux
##ocating
explosive
ian
lab
##vas
##ups
resistance
arrives
volatile
##tures
tolerate
jam
urine
5
prospect
painted
##elin
church
##lian
##col
paxton
acute
matthew
##ati
strengths
pollution
accident
skies
jan
concentrate
squad
screwed
kinds
ama
flawless
##ception
##rek
facing
lock
distinct
ignore
calls
revealed
wrought
humming
bands
palette
giggles
janice
loser
arrest
names
addict
##ammed
cum
jonah
advised
##uin
manners
##vance
homo
characterized
sporadic
crossover
witnessed
##folding
conception
poster
mall
##hart
raising
cash
anatomical
fragment
guide
carrying
map
##pur
answer
trivial
##ja
beer
reached
##onate
littered
costumes
fluffy
dismiss
craven
sud
amusement
bones
nash
muted
rogue
##dium
ship
melt
perform
bargain
basement
roberts
sources
truck
mountain
##ke
##watch
unfortunate
fewer
##bby
starving
hurts
21st
thunder
producers
##ula
##dating
##ffa
significantly
cock
happily
##inates
principal
specifically
##dun
liberal
nair
odyssey
monsoon
garde
widow
##max
debate
pulled
catholic
urgently
screens
shared
experiment
majestic
steer
darling
##ffer
invincible
vaguely
unbearable
thomas
venice
clad
dimension
zhang
ave
sessions
vastly
anywhere
border
consolation
##sca
##tized
outrage
lose
oz
lanes
maternal
downs
olivier
##aya
loyal
skins
dots
probing
##tors
impress
canon
##bound
antonia
cartoons
conditions
##inger
jake
burst
wildlife
threat
floor
receive
robinson
patron
struggles
compared
investigate
glow
distracting
received
press
lyric
valley
##urs
##itte
species
duke
begun
sleeper
suspend
saddle
##ars
benefits
lonely
months
sticks
infinitely
comics
ours
instance
teachers
exists
chooses
champion
initial
calculated
interaction
afternoon
dragons
suddenly
bank
##alis
incorporates
pleasantly
marching
vera
conceal
sleek
undo
survive
butter
merchant
productions
helping
juliette
taxi
indians
stephen
optimism
bile
research
##dre
overwhelmed
heightened
##list
##ditional
combat
analysis
curling
das
highs
eastern
##ange
19th
dilemma
sorority
emphasizing
accomplishments
horrors
gloss
strangers
noticeably
relate
midway
serial
player
gloom
##bla
requires
expecting
##xed
sticky
induce
capital
hampered
placement
resident
dozens
##quisite
tabloid
shady
connected
pg
performing
##vity
eva
crossroads
##wan
##ents
strung
evidence
cia
quentin
abrupt
repeated
jagged
inadequate
##sed
defined
##nor
##ttering
naked
vice
snake
##iba
destined
nut
colour
goodwill
1999
achieving
##ho
strains
##je
swedish
payne
cheated
steep
themed
silence
##coming
comprehension
soaked
stepped
avant
afford
##eman
mercy
yorker
fontaine
economic
##sack
matt
##wil
##dan
ambiguity
##lab
moderately
nonetheless
freshly
alfred
##ivity
sal
perpetual
commitment
##ions
discussion
##ulsion
searing
opened
allowing
tied
task
##tt
bombs
regardless
collapse
ardent
dia
th
hannibal
hind
choreographed
sas
mcgrath
shadowy
interviews
possibility
agent
vin
correct
shoots
##oat
generations
bitten
annals
bursts
ruthless
##rable
partly
biography
rub
##et
bowling
brains
harmon
##helm
teach
atop
cooper
blazing
downtown
dependent
##kind
versus
1970s
dean
##hel
##art
opt
rice
succeeded
records
##jure
##mb
digest
girlfriend
sport
carmen
scoop
jagger
##erving
applies
##ination
compensate
sexuality
nominated
##lda
screams
intent
vulnerable
realm
##vious
lai
billed
linking
spins
educate
##ade
throat
shapes
region
delighted
##mot
kicks
##using
walsh
brushes
retaliation
amid
stoke
experimental
wound
ticking
repeatedly
steady
clung
orlando
quota
##tions
jane
##sto
##oki
achievements
improves
neatly
##isms
directions
##rah
numerous
reserved
##cker
traditionally
translate
recognize
neck
labyrinth
##ique
undermine
louis
institution
joan
nelson
##dition
passing
monumental
leaps
tank
gas
##zine
rhetoric
criticism
successes
waking
topical
86
prevents
sealed
chasing
snail
drains
indication
rampant
considering
chair
metropolitan
##eras
erratic
unsuccessful
jet
named
##ruff
##duced
lumber
flaw
opposite
worthless
collective
attack
julia
##bing
soccer
##ptive
hopes
recognized
stab
greedy
staring
regard
cardboard
##vu
##sch
invited
##hesion
##mind
##por
watered
##lving
pounding
abyss
internet
charitable
mechanics
800
dam
afghan
breathing
critic
relay
confrontation
pee
slam
##spar
cheaper
tub
##imated
crew
youth
marquis
faults
conditioning
operates
##logue
slide
sparkle
##zel
furiously
gasping
speculation
wil
illness
##ei
diplomacy
privileged
elevated
##del
honorable
##chal
betrayal
masculine
pole
quivering
reminded
experimentation
##sson
schemes
waves
novels
##more
##iani
arch
apply
creatures
states
virtues
bum
negotiate
spiral
efficient
train
rib
##ssen
salute
##ried
##uary
##fb
agenda
##oto
pauline
described
inquiry
##org
sing
passions
shattering
donovan
##inated
practice
hopefully
##ded
valid
velocity
tall
circus
satisfactory
cops
demand
##bber
william
lin
attached
comforting
pushed
swings
satisfy
##ono
eu
tolerance
wesley
accumulate
unknown
contra
##tone
verge
brush
law
##eg
shaggy
ironically
opportunities
nur
gust
successfully
substances
calling
yellow
##oting
hitch
destroying
acknowledges
naughty
perfection
globe
undercover
diaries
fiery
restrictive
inevitably
##dler
kindness
weaving
awarded
outsiders
strokes
distracted
bis
conversation
evaluate
shrug
learning
routines
fiercely
##car
severely
##urity
footed
upscale
offerings
alt
killing
##lli
colored
welsh
crocodile
mouse
releases
##wave
feelings
##grad
code
available
queens
chiefly
departure
competition
nonstop
coe
##qua
##zer
##rkin
lean
pinnacle
page
forest
noticing
twisting
extremes
racism
tendency
sweat
sexually
indo
jon
glee
possess
##fur
##azi
information
##ece
##weig
seemed
latin
candi
##ound
immersed
asia
dough
efficiently
##ward
introducing
promotion
##oa
lac
##tering
navigate
nights
##nu
guarantee
mtv
joe
studios
##ito
pots
bankrupt
borrowed
##rl
##wer
campus
expects
##plate
nemesis
ruins
##ppe
##aling
##lea
##uce
fault
speedy
dive
visible
##rade
everybody
flatly
##une
scarcely
warmed
##ote
##hes
captain
##bal
##nco
puppet
strained
hardened
bolt
involve
mode
blah
chelsea
claim
tract
troubled
fragmented
choke
##ogical
##hiff
##tein
plainly
##gr
decor
styled
refused
tactics
nine
##ide
##bbly
tea
expressing
steam
condensed
tenor
encourage
novak
destroy
associated
oliver
australia
serving
discovering
insider
##erty
deepest
likes
hawaiian
haynes
stopped
discourse
flavour
destiny
betty
recalls
challenges
##nne
diary
prism
##uity
seated
##ters
considers
mendes
resembles
strip
defiant
moth
mer
depths
clock
##away
##aina
united
civic
comprehend
screenings
cuban
chaplin
relegated
mag
##ette
apparatus
##yce
craig
bonds
veteran
##cher
underlying
vibe
creeping
forgiveness
represented
unnoticed
##cia
careful
accepting
engages
##gue
survivors
##eric
spiked
reflects
##cht
climate
padded
##fect
dated
tissues
proved
##rea
liberties
relevance
israeli
rage
##iri
landmark
thirteen
narration
pageant
smoke
socio
thorough
##book
sentiments
door
##gging
reasonable
##ished
#
##sford
ethical
round
##ibe
biased
fellowship
fused
thoughtfully
autobiographical
clinical
cad
##au
guitar
##ert
bois
liking
lights
receiving
marshall
tapping
##ms
##ttes
enters
##rates
massacre
##dant
emerging
smoking
barrels
decide
owes
effectiveness
tearing
stein
california
##note
reminding
##edly
##ivate
shadow
seriousness
determine
##till
##mar
messing
trade
##clusive
##aw
woven
rebellion
highlight
shorter
##ddled
jerk
forcing
shoe
bud
stream
risks
##vre
seattle
pizza
clone
showdown
heavyweight
frontal
##chet
fence
ants
retains
##ility
durable
clay
##burgh
theory
##raphic
ought
eclipse
minority
blanket
shout
##sters
wryly
##ctor
leaks
zombie
ninth
stubborn
sprung
prank
narrow
##pot
examine
everywhere
lengths
daughters
recall
schumacher
marine
crystal
orgasm
witnesses
albeit
brutality
conflicts
primitive
##amina
phrase
alternate
compromised
##uw
expressions
fide
convention
beacon
##game
##uated
assumes
whatsoever
horse
##rent
exception
cocktail
tre
94
elephant
generating
tor
allegedly
resembling
eyelids
pairing
portions
##etched
liability
compare
beaten
##hammer
##gible
tailor
indifferent
##ski
render
##tray
freighter
relic
prior
##tron
##creen
##sted
geared
wasting
suspects
predominantly
fra
resume
hurry
healthy
##lver
ritter
cheering
##wny
##vert
futile
progress
trump
nat
fabricated
lengthy
goth
##cope
behave
##rti
violently
raped
blur
carr
forgiven
spine
morgan
paperback
hostile
gui
##tively
schedule
##hini
subordinate
continuation
exceeds
##son
##uising
actions
##dam
threatened
##uti
dreamed
distortion
coat
dun
meal
kathy
accuracy
##fin
pac
nails
baroque
mae
##trom
##aine
became
policy
##bb
##itz
sweetheart
##mering
ambrose
deeds
##ken
##oi
##fusion
define
scientists
stabbing
acc
victories
foster
walls
celebrity
board
captured
popularity
controversial
##inian
discarded
puff
turmoil
wang
greene
##bt
shi
compliment
nerves
swimming
bart
##lster
confusion
photo
stanley
canadian
fia
##phobia
proving
defining
##logical
##nis
belgium
##iste
hug
##mers
inherently
wartime
friendships
flight
exist
environment
crosses
##af
innovations
assembly
##hip
##tree
chewing
##idi
arm
campaign
variation
targeted
wrestling
critique
##fine
##dog
denis
inuit
evenings
gong
1984
##try
corruption
chamber
neglect
feral
credited
adolescence
finger
audi
margarita
##nick
mission
muscle
reflective
visionary
bonding
constraints
##owing
##rite
caliber
misty
##izer
include
dollar
manifesto
volume
##ery
frost
##tary
invasion
##stein
maturity
versions
catalyst
##ked
##gned
employs
apt
##feld
heritage
charles
sur
regarding
chain
##elo
increase
balancing
clenching
flinch
bean
comments
##dly
bubba
burnt
##tility
tad
ferrara
fei
folly
##ctuated
areas
argument
##tz
evolved
expands
curse
##plin
gaze
miraculous
edward
polite
##tur
knee
regal
sync
cushion
enriched
ray
sibling
##fc
careers
##ven
boundaries
selection
believer
83
warming
proposal
realities
update
2000
depict
appetite
legend
superhero
flickering
parking
fueled
absorbed
purposes
myers
##rut
##mber
rocks
drunk
chocolate
pep
circle
arms
marina
sociology
bop
possesses
reassure
extensive
##iner
fires
accomplishment
breed
barn
afterlife
##vic
disturbed
sonny
cruelty
bender
bout
##rdy
muster
boiler
grave
##placed
shorts
##tment
##rant
dumped
##ede
potato
aisle
walker
serials
mine
wore
reliance
stretch
##rem
contrast
fee
thud
distress
fees
pencil
vulnerability
neighbor
fling
breathless
org
##gon
advice
cipher
fingered
preview
jump
farrell
pickup
legally
hurley
wade
creators
superman
##rom
hodge
##pod
bid
homicide
gaping
health
##rum
disabilities
reinforcement
wai
messenger
asset
mold
elbow
##rov
creek
improper
slant
turkey
##liness
losses
preliminary
##station
abc
crypt
clap
wink
unaffected
dil
##atable
fluent
parrot
##bie
introduce
cup
wherever
devotees
related
listening
solar
detective
afi
##cion
##ados
laced
stable
confront
stevens
approaches
gary
saves
analytical
informed
##dote
tend
##udes
responsibility
disdain
mod
##xt
##osition
leg
##zam
refined
##mism
washed
zealand
##ree
eating
prevent
##ography
##uro
stages
monday
quieter
##arte
##film
vista
powered
demonstrating
ign
kits
##ang
claude
capability
mermaid
pearl
harbor
##tish
choosing
##ieving
liar
acquire
equals
urgent
israel
finch
sung
##now
basically
introduces
##umi
##nate
##wind
toes
enthusiasts
relying
companions
restraint
appointed
carnage
nail
afl
cass
##gled
herring
pumpkin
aston
##lly
dimensions
expresses
python
tavern
linear
internal
tattoo
hash
letter
scrap
marred
paying
gamble
broke
##oni
scorpion
##our
assassination
demonstration
shiver
differences
lynch
##ship
mock
jessica
executive
commands
##phic
craftsmen
reconstruction
thank
proceeds
population
alec
menacing
##æ
##uing
lan
east
demo
shudder
tremble
ethics
clutching
##rop
stamp
quasi
outright
willie
##fy
corrupt
affect
plunge
aid
jealous
clancy
espionage
mystical
##uso
##ake
stellar
stir
norton
##power
##bolic
memorial
milestone
entity
tian
crane
adorable
symbolism
painter
millions
##rist
competence
cure
confidently
unmistakable
lad
##oso
defiance
workplace
##isson
assume
elbows
markets
pipeline
integrated
##lak
mass
cultivation
readily
passed
##tched
estranged
##due
fruit
automatically
employment
cow
graphics
##bil
lear
injuries
puzzle
waltz
model
sucking
##uni
sarah
harrison
resolution
##ach
ecological
terrorists
interpretations
principles
chases
counts
auditorium
describes
siegel
absorb
adjective
ash
wednesday
freddie
decision
suggested
nave
sterling
##rdan
noticeable
##tat
academic
holding
runner
flowing
speed
##tty
stores
##ario
oct
quan
##dar
sought
privy
firmly
identification
bare
##trust
fraction
##inations
##oper
146
hawk
jr
limit
racing
##storm
agency
workshop
vicious
##talk
conclusions
stalls
7
peas
downhill
joint
accompanying
sheets
##aver
mistaken
array
##ffe
metal
earlier
##nte
stuffing
oil
dealer
##drop
99
streets
##otti
##turn
ringing
collin
##wood
##load
rid
##born
vacant
squash
tax
##ffed
phoenix
disagree
appearing
##jer
##vera
rally
##tight
sewage
court
maneuvers
pawn
claims
shown
102
depend
punishment
encompassing
gray
disturbance
gotten
bush
nickelodeon
##lau
##cast
print
##ige
mounted
annoyed
##ailed
superhuman
puddle
mistress
ashley
##overs
scooped
rag
muddy
##hol
energies
leash
##ages
000
##rie
mist
earthly
pony
##quet
##aud
sega
satin
ops
cadence
obsessed
principals
garcia
lucrative
bent
princess
foremost
min
##ae
diva
##ga
##uli
dolls
orders
bergman
tickets
imperfect
ditch
favour
griffiths
##ience
acid
##dles
##maker
bluff
tangled
incorporate
##tti
scotland
##hos
accepts
squeezed
davies
regain
closure
minimum
##lga
rai
plane
revolutionary
fictional
portraying
##ena
historic
function
selling
diner
eyre
escort
##rting
treated
overview
healing
streak
bathroom
anonymous
norma
jesse
debated
##gg
resentment
ruin
cricket
combine
drip
mob
##dies
##oe
settled
##oria
ensure
discomfort
strings
kurt
##umble
skate
thirds
difficulty
boundary
hopping
cuisine
tunes
mergers
armed
plateau
interrogation
grips
ignorant
hardy
larry
stew
##wai
taboo
forum
downfall
surroundings
refer
##ential
vacuum
rapidly
pristine
pad
diversity
plunging
sharply
gal
##arian
tenderness
murderous
reflect
dangerously
thesis
eminent
biographical
fantasia
ominous
handling
developments
apocalypse
worm
singular
margin
sights
confuse
jacques
transform
laws
kennedy
subjected
##ndo
highway
patrol
vow
incapable
noteworthy
##atter
consumed
ghosts
##rand
shaking
diane
russell
fumbled
cox
resurrection
84
prostitute
clients
smith
elect
iii
wounds
signals
bourgeois
##rries
##set
contradiction
rocket
discreet
feminine
proficiency
##life
suggestion
detailing
bartlett
dominated
dared
shoes
prone
secondary
learns
factors
+
##iz
##zle
weaponry
yard
weasel
doubts
##phi
protect
placing
shift
decisive
fundamentally
philip
accused
magnetic
coupled
satisfaction
guessed
demise
##ying
hughes
##atic
driving
scottish
rustic
encompasses
paths
orchestrated
##atics
sami
##kh
##lm
houses
60
technological
kidnapping
##oven
instinct
annoyance
shepard
ste
focuses
##rted
ari
dismay
disgrace
spectator
seed
longtime
cleavage
anymore
attendant
boost
breakdown
panic
explanation
##sr
##layer
##ame
poet
##uss
wing
benefited
turbulent
desert
backgrounds
gaining
insanity
spanning
immaculate
pleased
ruben
timer
ecstasy
spaghetti
checking
##finger
knot
preservation
baba
hen
enables
stewart
devastated
foundation
staying
license
thumb
debt
sophie
household
25
comment
##cki
appeared
vacation
91
wills
soothing
##zak
##cle
mixer
##olin
gap
favourite
##ieu
cotton
##ele
##yne
cardiac
nas
disastrous
harm
caretaker
noon
humble
void
device
weighs
##nine
crossed
gus
##hs
##gai
sticking
reduces
##ges
##leg
##ractive
##bbled
ragged
hee
liza
sheridan
twitch
visions
author
##uously
jay
##rin
##kled
vile
##mbled
tumble
##weed
ladder
poll
nausea
pregnant
##tub
defeats
##vere
##cts
##orted
##gh
rod
astronomical
salvage
boots
inclusive
shovel
##llet
simulate
lake
rumor
log
handle
amnesia
##gur
strive
socially
calculating
##rim
##osity
insignificant
amazement
testosterone
##bbies
##crat
error
##hale
wanderers
bronx
supermarket
##bot
##omy
stare
graduated
volcano
##tate
favorites
holland
spreads
tier
shear
##lins
concepts
dreaming
sacrificed
##date
thumping
meter
challenge
pump
reception
##powering
psychotic
mormon
flung
crossing
footing
pact
column
##scu
##mento
##gens
##sg
tay
##ettes
grimace
iran
morrison
corners
moonlight
permits
philippe
wasp
thankfully
rachel
coal
confronting
eats
comb
speculative
edged
wei
##nare
endings
provincial
sons
stuffed
##anies
ivan
styling
celebrate
flowering
tremor
bridget
stress
reducing
stopping
ferrer
##ros
brian
##tism
spread
illustrating
##ress
invest
raymond
greatly
1960s
escapes
athletic
sandwich
quit
##dd
rounded
espn
aisles
topics
forward
guru
receives
anchors
phillip
restrained
autopsy
berlin
treatise
seal
douglas
recess
##lines
caf
shed
##inge
vol
transports
chicken
prepare
steaming
triple
flowers
bouquet
##cine
##sar
suburban
vampires
terry
levy
namesake
contact
sweaty
commonplace
london
merge
wire
courtship
##reate
floating
shaken
smoky
paste
paintings
remembrance
tendencies
1989
dedicated
notably
cyber
fingers
##nie
hanging
lucas
peace
herald
ideally
native
strands
agree
chronicles
##pis
portrayed
hating
documenting
damp
trembling
##eran
##lk
##puted
##isen
lore
largest
mask
separation
##po
flirt
compatible
rodriguez
goodness
brittle
origins
nazi
drives
architecture
##see
bothered
salle
maintained
##sque
illusion
hispanic
groups
commended
##pathic
batch
##bag
##of
rendering
tempered
voices
hooks
maid
##board
anniversary
suspected
solely
broader
addressing
superstar
indictment
brass
football
musicals
eileen
##ili
300
fuse
abandoned
germanic
risky
patriot
leap
##isse
transporting
tucked
##ggles
awesome
pronounced
##inatory
##house
aerial
hubert
compressed
yours
cope
athlete
hostage
##jit
size
##ung
commanding
behalf
endangered
passive
##sum
##mate
crises
ceremonies
bouncing
certified
surrounded
nba
singles
fighter
##law
##lman
decay
kingsley
beating
devotion
evolution
sophomore
shopping
doomed
treating
mick
bas
splashed
clubs
principle
##lide
##fication
hotter
rules
scan
excessive
nationwide
ke
##stream
entrance
##rring
##udy
shirt
composure
funky
continue
##buck
##lers
grandparents
recently
realizes
structures
jonathan
crash
homes
glued
partisans
viva
##tist
worlds
vh1
explains
##khar
##stor
hospital
##elled
##bach
radioactive
dodge
desirable
bearing
enforced
hiatus
exasperated
##sily
rural
hilary
passages
##kovsky
##oons
gaps
##put
coping
1993
##gizing
##zier
extension
descends
cleansing
famine
documented
spicy
invented
##ulously
sang
benjamin
1937
##rued
heap
luminous
pasta
tequila
##nh
451
advance
haunted
responsibilities
wilder
hazy
hal
adopt
##ich
kept
unrelated
##ller
1975
greasy
##eca
##torium
threw
mined
populace
antonio
liu
cloak
mixing
cows
##lock
splitting
windshield
prolonged
devote
105
vo
##ye
##lle
fell
cherry
orchard
potter
tossed
lash
um
thrusts
##rta
##ining
##med
##utter
##xon
ignoring
embarrassing
ninety
##type
sufficient
stacked
110
blowing
indicative
##hold
refuse
##wash
camouflage
thrust
pbs
groundbreaking
grease
##lized
reductions
##yon
crook
fame
unity
wizard
##loe
##hom
feeder
sparks
##offs
##sai
##ization
straining
pained
##rift
devastation
faulty
surgeon
annie
wayne
##lice
48
##aging
smallest
##iv
afterwards
##itude
##zoo
atrocities
sharing
cafe
##zie
cello
iq
imagined
##ied
shootout
dies
finished
speeds
entered
withstand
yelling
endeavors
arrangements
releasing
framing
motives
farewell
pedestal
fatally
dates
ye
futuristic
labelled
103
##zo
triangles
johnny
knoxville
projectile
##ense
arrogant
dante
prince
prologue
##grade
columbia
barlow
delay
jimmy
duplicate
bela
##gos
marking
##ht
##eter
centuries
chatter
modeled
chen
multitude
scrape
orchestra
items
kate
conan
tolkien
labour
##rp
interference
mimic
baseball
streamed
freely
countless
employ
insists
believed
titus
##mani
practices
snaps
##ix
affectionately
emergence
##yna
figured
orange
##nee
sleeping
thrive
##verance
mexico
bruised
stall
##zation
##ev
stimulate
##wc
risk
reputed
dar
poets
promenade
myrtle
ally
inferior
endeavour
religious
##giving
##thi
unacceptable
coughed
respond
stones
artworks
luke
ok
newcastle
12th
conscience
narrated
##eth
rainbow
##cci
ron
picnic
80s
cutter
haul
assumption
joseph
chronicle
county
##eller
danny
serpent
definite
fundamental
attach
cart
equation
confessions
architect
##ras
bursting
##isto
wherein
acquired
palm
##cation
president
sixties
##erina
brussels
frontman
limbs
##tori
rue
palestinian
torment
infused
ole
##ander
punches
##pin
underground
preceded
packages
efficiency
managing
napoleon
unprecedented
establishment
commerce
indoor
##ration
alexandre
mars
preaching
perception
##nder
honored
trail
mora
overlooked
disturb
##rden
frames
##hum
craftsman
flame
roi
pushing
akin
##wen
island
turner
needy
lucia
spends
highlighted
howling
bubble
aesthetics
##tically
tricky
cube
plague
marked
admitting
ol
spouse
bending
inhuman
ming
cannon
victorious
thinkers
##icz
tens
tucker
gonna
ample
##zziness
##dern
literature
walks
##nist
rated
500
suggesting
##uy
marathon
depends
10th
##pole
spit
##arians
conversion
disappearing
lara
##mie
var
address
skyscraper
addresses
##ulin
serene
closest
escaped
considerably
slender
kenneth
lying
halle
##ham
##works
las
mocking
##nch
bled
bias
charlie
##lf
##rmin
included
##dom
julian
shades
##olate
reconciliation
##lz
singh
##ener
##zzi
watery
drastic
settle
wool
rico
1957
expo
tapestry
ranges
hopped
subcontinent
backed
sprawling
profession
fuel
primal
##itating
maggie
orbits
torre
##phile
purity
##zes
##fall
approached
mounting
parental
giggle
lowered
challenged
gain
ventures
concentration
excursion
swords
connections
substantive
##dice
glasses
##ety
attracting
##lth
fearful
chat
retiring
protective
coco
birmingham
cradle
north
butterflies
burden
tang
tie
walt
##rone
debra
investment
stripped
garnered
weakness
##ount
arrogance
integrate
depleted
overboard
broadcast
ladies
derive
dollars
sketches
##rgan
##tua
suspiciously
surviving
tanks
nuclear
scientific
##ir
founders
indefinitely
seizures
yielded
scripted
klein
landing
duct
switching
##tar
perch
pup
legs
outward
mojo
distinguishing
fever
##not
pornographic
pointing
smeared
##tite
archival
pistol
supposedly
moat
##hea
begging
keel
battlefield
backward
pena
##weight
jacket
platt
##anor
aa
bread
frankenstein
approaching
cocky
##act
invite
framework
worship
elm
transport
copies
byzantine
sacrifices
295
glover
existing
##ptic
forte
##rad
obscene
##tance
presenting
scribe
fallon
erin
brock
bike
option
medicine
outline
paws
featured
kills
heather
barbed
93
fiddle
##ail
avid
##lot
paddle
##over
majority
saddam
hussein
permission
104
suicidal
##sume
##nge
fireworks
##hala
blackout
unchanged
accuse
tables
bewildered
glucose
morse
targets
promoter
cared
comparisons
italics
resulted
tire
tutor
annex
dj
##aba
##ium
stench
plagued
participate
partnership
##tated
session
lick
shaping
recognizes
amour
##rip
##print
guest
outburst
ordered
miami
rae
banged
fran
##balance
alarm
stature
distinction
pious
prom
mcdonald
briefly
clips
motionless
idol
alterations
operational
ambitions
presiding
defensive
##ples
##sser
kirk
##ega
tightened
drill
##opped
gathering
mgm
recover
lists
eagle
carpets
solution
property
gallery
plastic
##nac
##tted
hanna
##orin
##had
divorce
adultery
##ipe
amp
sands
endorsement
ransom
plans
moaning
muttering
lectures
cinematographer
died
y
##lay
staggered
married
leaping
lightly
someday
difficulties
anarchist
##gb
##bone
bitterly
collaboration
grinning
slope
adjusting
##ngen
temple
seasoned
veterans
tan
christianity
reese
strategic
utilizing
##beck
classify
hairs
leigh
contributions
method
amar
irrational
parochial
consideration
yourselves
##xa
servants
##itarian
factory
reside
varying
##ddin
derek
elf
##brick
clouds
dos
confirms
sixth
##gle
coast
berry
procedure
nicole
##gna
muscles
melville
##ury
fascism
##par
##iel
erect
precedent
##take
forbidden
##deck
163
lieutenant
collaborative
portuguese
##standing
forster
franklin
borg
pluto
##rou
##lves
unnatural
evergreen
temptation
implies
##los
guzman
acquainted
machines
##bic
flexible
everett
##vir
construction
##dict
handles
sean
penn
owe
nicolas
university
departments
provided
studied
##ption
##hur
prevention
walter
undertaking
sincerely
89
nuts
disciplined
holy
insistence
##stone
claw
flux
##ova
bash
pissed
influential
##can
warner
##bed
##eld
##lies
imposed
shin
appearance
preserving
mai
##aint
oral
expanse
slalom
canadians
sewing
v
newcomers
combining
watts
offended
assess
resort
hired
accidental
##ius
deafening
telegram
global
taiwanese
liang
aristocracy
revolutionaries
welcomed
tuck
requiring
link
pour
appropriately
##rita
##ners
7th
werner
closet
skeletons
thoughts
debts
stepmother
military
retrospective
orphans
##open
blessed
normal
divisions
nonfiction
##dal
spa
bubbles
##front
hardship
shack
elite
enthusiastically
exchanges
rotting
morton
practiced
distances
integrating
##ulates
contrasting
##iac
continuum
sole
##flower
evan
bark
pause
india
##mmer
dependence
questioning
hue
cot
##old
degraded
playfully
cheered
storm
##eu
hence
enhanced
returning
signature
diver
glide
favored
closed
##hem
##uz
beard
##ws
##nds
sunshine
abel
attacks
yield
confluence
##eki
library
soothe
paradox
suspension
##sts
worries
faint
religion
##tom
##dgets
jeff
holden
versatile
parallels
torpedo
maker
##isation
##arable
dizzy
laboratory
graveyard
chin
forming
applying
##wl
swift
android
coaster
inadvertently
sunny
disposition
wheeling
groove
rooted
laundry
##quin
prey
scoring
hated
diaz
favorably
swaying
##boards
reduce
fusion
proven
##sma
suitcase
overlook
centers
wary
plate
philosophers
workings
walled
patiently
##bari
pages
twinkle
sociological
##rina
deco
##marks
guarantees
resorts
crowds
rivalry
prick
chemical
teaming
defines
yale
flies
gems
revisited
##avi
waldo
prescribed
meet
retreat
followers
registering
matrix
statements
##box
##cken
##mut
##pping
##lby
jersey
industrial
freeze
##sia
##sham
21
prolific
comfortably
##nga
humiliation
thanksgiving
bench
##mark
fumble
rash
##tiv
plant
dolphin
##pies
gum
drift
##bel
creed
ineffective
gigantic
unfinished
fours
tube
howl
iconic
deter
##ior
bordering
reviewers
##rud
##erie
##worthy
provoked
##ark
shifted
soup
nad
michele
hiss
bars
facial
paso
##lini
cue
rumbling
properties
##ellant
pocket
network
feed
pond
wreckage
avalanche
rolls
suppose
anticipation
##stan
siege
##yah
##iction
vapor
joker
laser
graves
##ari
##hh
dug
climb
toys
##wed
unclear
hills
parallel
muse
hammer
dot
morris
perennial
ensuing
developing
smell
playwright
homosexual
hawke
vittorio
sic
workshops
luis
enacted
##cks
achieved
insufficient
therefore
mom
guise
substitutes
##gin
##wled
cars
hottest
neutral
bald
objects
user
##stand
mari
hiding
nosed
##ln
eternal
##fulness
humidity
##ager
##ire
trio
invites
generals
refit
enemy
##ipes
fighters
monitor
gods
##ched
buying
collar
13th
cancer
##vale
bates
draft
viewpoint
owen
retail
clerk
##hering
trier
bags
stills
mattered
alleged
acidic
##zzo
hundreds
removed
proposes
1980s
blond
honey
nouvelle
lectured
##cum
weighted
discovered
activism
owed
##bet
interior
dwell
##nas
spill
uhf
cheerfully
accountant
interests
##aking
altering
##cs
drying
##hid
pau
##section
66
fluids
capped
24
distinctions
slump
shore
scientist
portraits
fleeing
##sity
trusting
position
grocery
solving
tongues
smashing
dung
##pile
contender
coloured
barker
##lai
careless
undergo
repeating
lax
##ume
kai
puppets
associate
manager
obligation
metaphysical
rode
zipper
valentine
broadly
loco
##genic
puzzled
agile
shouting
laptop
##ection
giants
bryan
january
exchange
##ntes
1920
##uttered
moist
resemblance
inability
opinion
serra
jeffrey
larson
election
virtue
##ennial
occur
stevenson
argues
1952
anthology
arte
##dad
trials
joins
stained
gossip
trains
mixes
carmichael
##ares
students
avenues
immigrant
brink
16
##yu
monument
lone
brew
units
prominently
ripping
absorption
##mple
spain
august
sam
gliding
##sun
glamour
prescription
mankind
murderer
ascension
yo
hearst
##eye
##ught
visitor
charlotte
filter
traces
##vid
gaza
clint
beau
thirst
##vocation
pitted
sally
raphael
unit
crawling
mika
anna
##lal
completion
##hell
england
chords
bai
spans
##psy
arguably
##cie
bus
ballet
nolan
catherine
##rco
whipping
ada
##gut
##holes
banquet
workout
brendan
kim
##ske
angelina
pearce
functions
subconscious
cas
maj
##mite
journalists
publicity
overture
telescope
##tose
bedside
##gil
##ments
parlor
##gus
bravo
melted
encourages
wwii
crazed
ireland
julie
assuming
apollo
pearls
pastry
ratio
physically
##uchi
flying
masked
dominate
candidate
libretto
##xes
beginnings
tops
asphalt
112
explored
businesses
depicts
transparency
cary
##boat
latch
ich
defend
##ishment
welles
kane
##ories
subjective
##tam
meetings
letterman
tormented
morals
homework
cheeks
ashamed
reagan
vent
partner
robbed
collect
##venting
flashing
##hari
cumulative
molina
##igo
advertised
est
##rogen
wider
bites
##lmer
investigation
flashback
weekend
fuels
organizing
flames
##pus
boil
##working
##claim
robber
besides
##rr
workers
pipe
percussion
vaudeville
tony
glint
norm
godfrey
bran
##agh
ur
pursuing
rebel
margaret
thatcher
threatens
##rang
zhu
##zh
##ground
elder
pivotal
##runner
prominent
##ais
exposure
tinged
##tones
katz
golf
##cta
apple
reef
utilized
fledgling
##acies
weiss
swung
graham
windows
individuals
prisoner
surplus
archive
arrow
raging
transported
##sitor
assemble
outlet
contemporaries
opposed
##oud
adolescents
lesbian
trend
matches
governments
agony
##lier
bind
wrapping
calvin
##pment
ensures
complain
illuminated
epilogue
harvesting
inhabitants
francisco
variations
midst
winter
##gui
bankruptcy
rake
searches
progresses
##enter
catastrophic
staging
classification
##music
apex
misunderstood
##riety
##guard
beaches
explicit
revive
peel
supplies
waited
vanessa
##grave
infiltrate
models
dancers
updated
fluttering
maximum
assets
##cer
mornings
gig
##gly
sanity
skull
boot
retaining
toro
regards
talks
##fr
##lch
artwork
##ddling
franco
adherents
overwhelmingly
tackled
prevalent
skeleton
##uded
##zzy
##2
gia
##nni
##gt
raf
##fish
##mba
courtesy
previously
skulls
bail
amelie
spoil
##tina
##around
soprano
consequence
##hre
##plify
frustrated
coward
ounce
vertical
airs
ingredient
ate
adrian
sidekick
preferring
guiding
grasping
paralyzed
grenade
accumulated
##uses
hysteria
equipment
warned
##fort
=
unified
tainted
macbeth
##turing
champagne
throbbing
weakly
cursing
##rce
authenticity
apartments
parties
performer
75
knees
reed
mummy
inactive
roster
participant
warn
##nant
decides
seasonal
possessed
punish
chains
##wee
fang
##die
variant
progression
majors
weathered
meyer
waits
dusty
simpson
garner
cooler
roach
##raz
##meister
los
contenders
september
1995
paris
skipping
stroll
kraft
popped
##sier
coke
undertaken
##cles
io
tunnels
attackers
surveillance
technologies
expensive
noisy
remarks
probation
officer
##ulate
##ee
executives
inning
talked
skirts
scarf
clare
toy
collected
ventura
##ak
##rigues
decomposition
bugs
cater
2001
lottery
##ographic
extras
photos
reports
##dding
##pool
agents
miniseries
recovering
sore
boardwalk
coincidence
lew
##tled
olympic
arguing
glitter
limerick
##nberg
##drome
fortune
##makers
intimidated
posing
##worth
vast
laurence
grandfather
projection
regular
bouts
245
##5
assassins
boss
##sal
##lam
##orous
lisa
ankle
fascinated
cellular
tarzan
criminals
mast
##bation
assaults
##esh
##dl
booking
passage
tons
drain
classified
quad
##rangle
##ond
##ctum
percentage
tactic
pupils
prophet
flush
sterile
wax
##day
##ctions
barrage
screwing
eve
mythology
shivers
surround
##dier
##gged
manipulating
icons
##ore
complaining
reproduce
##oxide
government
##body
overshadowed
correctly
flopped
bows
chefs
1938
settings
drained
##heart
handy
sent
mourning
boiling
fertile
exhaustion
concentrating
recruiting
lyrics
tonight
##brand
##arth
shaky
seizing
assigned
mortar
hunting
persuade
nixon
finer
##rar
scotch
allegiance
##grate
perry
maintenance
##acy
austen
freshman
replacing
faux
yank
decisions
##lid
insulted
##mide
slogan
prowess
revolt
garage
sale
equations
juliet
playoff
temperament
lecture
worried
refers
comparatively
drops
unpaid
eh
clive
files
spitting
auschwitz
##arat
cookie
chronic
discretion
armchair
tourists
traps
horrified
gentlemen
stains
definitions
hurried
altar
operatic
freight
online
trilogy
expanded
##rus
##gol
chuck
advises
deck
mama
bern
tal
twilight
realization
griffith
traits
singers
glancing
##bis
restoring
maxim
##otic
rates
##ald
bases
desires
##cup
##ations
caesar
harvey
##nstein
aground
shirley
dani
melanie
##ech
##1
##0
patriotic
##gat
traced
converts
##mmel
mcdowell
##rsten
regime
propelled
bitch
duel
bought
someplace
floats
barrie
seater
banking
veins
bulls
consistency
##kus
observed
woods
cunning
sufficiently
threatening
gates
adamant
philadelphia
marc
marilyn
havoc
blanche
sends
classes
contained
doyle
huskies
formidable
forefront
nationally
attending
phi
##sop
marry
dal
astronaut
napoli
##litz
europe
doorstep
heller
track
springer
yields
1950s
pornography
contributed
interpret
gill
##iam
##var
betting
plug
housing
contentious
configurations
conducted
lima
illustrated
oversized
grandmother
duly
occupation
blasts
fork
drawings
canada
conform
discontent
curtains
syn
##gist
typically
elvis
##than
mail
firth
adaptations
clicking
##titled
combustion
engine
respects
enforcement
reynolds
rappers
recovered
instrument
anchored
techno
beliefs
trades
##rio
129
##onal
techniques
psychic
purge
jug
##glers
peaks
##erre
##wire
tori
amos
choreography
unease
deterioration
barbara
gratitude
mechanisms
reader
discoveries
dave
overlapping
attic
##iot
##dora
##lty
essay
enhancing
##ase
rick
##yi
##wa
flows
lifelong
shell
bucket
##ove
clones
spikes
elemental
##elling
swiftly
flex
tho
imam
toned
deemed
tenth
vary
publishing
review
170
crashing
manifestation
label
iris
imply
exiled
courtroom
tested
vegetables
##gno
doors
kang
manual
stakes
concludes
##eli
lily
overcoming
##gie
administration
##plicity
producing
views
##wick
intersect
headline
cedar
tunisian
toast
jia
##xie
sheds
mortal
gravitational
##twined
christ
##jah
recorded
embedded
streamlined
vigorously
millennia
swirling
bob
travis
volumes
##cape
clutch
##thing
##kling
##uating
rave
bounds
ren
explain
concrete
gulp
##q
coral
testing
85
ivory
weber
dropped
rabbit
scared
##lich
candles
dealers
donald
##essed
knife
swans
rus
##oro
spending
##pace
nyc
##fast
bypass
traverse
##crats
stranded
blended
item
relieved
##ual
judge
euro
bmw
fledged
exhibit
trial
zhao
##shan
derives
preserves
##eve
darkest
skinny
strewn
inflammatory
##ures
surveys
respecting
spoken
riff
hardware
streaks
naval
personnel
diego
resources
alternating
royal
backbone
arrived
salvation
smaller
televised
recognise
gazing
marketing
wrath
khan
##illon
nighttime
diamond
bikes
immense
refusing
##graph
##sman
facades
urges
##centric
gains
##bourg
copenhagen
millennium
critically
gestures
##tag
bertrand
renegade
waving
wrap
forms
newfoundland
confession
involves
freeing
heck
##lis
poses
hail
##ville
unsure
##urg
##itate
bestowed
honoring
##ware
##att
processed
##vish
##ort
bumps
fried
folds
hypothesis
excellence
lina
plants
activate
##ifies
lawn
professors
association
phenomenon
demonstrated
kingdom
developmental
disabled
holmes
cracks
margins
mason
##cco
mystic
##sie
lunar
danish
strategically
brady
goldberg
batting
mountains
crest
warped
bacon
##unce
dunn
##otted
enlightenment
billy
markedly
frankly
circa
till
clarke
syrup
returned
poking
examples
petty
fist
writings
eighth
##itive
pillow
##case
87
revived
assure
piss
humiliated
dir
##gel
bari
lullaby
ek
battered
tail
exercises
##child
tunnel
##eding
digits
##write
assert
springs
males
binary
opposition
absent
methodology
##ola
reporting
bastard
plastered
winger
ric
join
plausible
obscured
ley
apartheid
genesis
disneyland
seller
stocked
logistical
resolutions
permitting
monopoly
oblivious
grimly
sidewalks
undergraduate
doubling
unnamed
##cor
lurking
expansion
pinned
decorate
clyde
barrow
##hon
submerged
##iferous
##oot
##let
masters
##qual
nurses
decommissioned
betrayed
progressed
nee
blacks
bleed
olympus
##hill
misunderstanding
shelves
praised
indicate
##zily
framed
tides
entrepreneur
customers
organ
##lage
demonic
branched
horizons
##manship
piles
illumination
belgian
helpful
billing
##ory
pardon
reference
imaginary
balls
systematically
##fare
brazil
memoir
tinted
blossom
##wing
fur
##row
transcript
##oshi
miracles
mount
defense
novelty
emerged
slapped
horrific
conrad
plumbing
garden
stripping
doctorate
##nam
##bula
backlash
defeating
hub
shapiro
goldman
##inal
province
##powered
lifting
trombone
##uls
kat
gifford
communicating
##ductive
bohemian
archives
equipped
legion
circular
turks
cracking
##ada
behaved
merchandise
##hal
cracked
##enberg
egypt
1998
yue
teams
scented
##foot
##sville
hears
classroom
teddy
referred
acclaimed
##ppa
month
reportedly
##notes
criticizing
##mise
terrified
ny
##hett
mommy
minnie
140
evacuation
handheld
tits
unaware
##ulent
adhere
kerr
##igan
platinum
##cter
powerhouse
##zzled
fray
lacked
eroded
intern
typed
thrilled
##drich
impacts
sunset
spat
##ision
simulation
advertisement
yahoo
impetus
rigged
zoning
ordinance
sending
soo
##eving
##rde
affinity
anxious
shri
sporting
activities
prisoners
advertising
hounds
physician
pressure
cooke
commenting
##orio
composer
nietzsche
referencing
##tery
##iver
baker
openly
hooked
collegiate
backyard
##uer
wireless
lamb
machinery
##lem
mandy
occupied
concerns
watched
unfamiliar
importantly
##nished
voting
malcolm
funeral
roaring
omnibus
homosexuality
##olic
##pal
drinking
twelve
beers
debris
mesh
collaborators
bernard
jett
##ison
shatter
##zu
hearing
14
stimulus
ios
juan
scored
camps
##nka
posthumously
published
widely
isabelle
rust
arithmetic
flood
sooner
##verted
uk
##dia
##zuka
lynne
##bes
emi
##dos
floppy
##nea
tangent
samurai
devils
##boarding
1790
alan
cattle
##iente
wonderland
stalker
photographic
lifted
vocal
rails
##nium
##rga
##hra
##fighter
remove
##tet
unleashed
##ice
marx
joined
advances
nazis
fencing
feeds
padre
8th
nes
slain
scratches
gallo
controlled
believes
##neck
##blood
shaw
melting
barbarian
##ois
til
##bad
dances
routes
roar
bronze
quintet
partners
partnerships
engulfed
cultivated
crushed
implicit
bowl
tak
##ashi
menu
72
seldom
angles
reclaim
forged
reflex
##grass
gesture
hailed
centre
seventies
pursue
persistence
communication
##stead
comeback
tape
wondered
##icum
karen
leonard
mini
naomi
eternity
##rth
##ox
organized
activity
unstable
axel
couples
##cate
liberalism
owned
##tting
namely
bea
##vis
relating
claws
##gni
##zan
stalking
comprise
mentioned
burkina
tipped
charred
northwest
bermuda
inspection
dungeons
domination
hoop
butler
mortality
stadium
depictions
susceptible
jews
##ez
deny
proceed
##ao
economics
bombay
rudd
console
byron
luther
##cian
delhi
tenderly
grabs
marvin
surge
rapids
rouse
produces
##ici
intellectuals
austrian
##ille
influences
##ntation
##sies
##hunter
compensated
biological
norwegian
ville
##neuve
diplomat
##craft
truths
mitchell
clarify
extends
compass
graphical
iced
##fra
##min
options
ideology
advancing
##thed
curt
fiji
michelle
sullivan
willingly
##yman
slot
rooms
trimmed
belong
currently
columbus
truncated
numbered
standardized
aftermath
##wise
mclaughlin
##phy
hotels
moan
##ches
costa
##comb
titans
myriad
advocacy
ballroom
engineering
ravaged
guarded
virgin
decline
pursued
penalty
bilingual
##inging
kahn
skilled
##nob
pointedly
mate
route
gothic
transition
tran
##quil
foreman
barking
solomon
landau
psychedelic
possession
irvine
telephone
babe
suspended
midwest
rivals
colt
bearded
emphasized
replace
swat
switches
reflected
championship
advantages
##ott
competing
lawyers
schools
plasma
mccann
notions
communications
##rys
uncover
charting
orbit
stanza
shocked
rafael
andrei
traveled
investigator
trained
##nst
deleted
dwarfs
tissue
governmental
batman
leader
sir
karim
##ards
murders
gained
snatch
experiments
harvest
agreed
absence
audrey
##tin
##dev
monkey
jury
tree
##yat
##ah
extract
##tics
lethal
##heads
hinges
enabling
##ght
peanut
signing
murray
1953
##cuit
loosen
mina
##san
fort
##ify
changed
jelly
playstation
write
##rize
1997
wince
editor
iraqi
mckay
creator
attitudes
##aki
smuggling
mediterranean
gerard
rubbish
endured
porcelain
##omorphic
##tracted
fifty
olive
1962
restore
purported
1960
location
zoe
prints
enactment
roland
demi
praying
mania
##very
paved
jacob
bully
describing
headache
modernized
knocking
runaway
catcher
rye
##xia
inch
##dr
##itch
circles
zoo
##lander
serbs
indigenous
stayed
##phs
personally
appropriated
##pose
##icate
microscope
dee
dylan
knocks
dipped
performs
graz
according
shoulder
##vial
deficit
divided
phantom
coupling
hunger
dripping
paradigm
spawned
lizard
chips
##ride
pretended
leroy
hays
##eed
founder
einstein
interrupted
verdict
fifth
trajectory
roads
magician
wrestler
ch
dolly
omitted
disadvantage
4th
register
abused
##ika
useful
protest
devoted
recreation
natalie
okay
seventy
impatient
clinch
##itis
origin
horses
caucasian
##ape
punched
##ulating
involvement
intel
abdul
malik
abbott
ernest
backseat
coinage
reverse
ushered
bait
##backs
blending
threshold
##nz
adored
kendall
violated
killers
instances
interpreting
##anta
##sms
bounce
avoiding
cafeteria
riding
hacker
polly
##ana
somme
recreational
prelude
nightmares
persistent
summons
doubles
##iated
lungs
##het
adept
ruse
boiled
dressing
weighed
bytes
troopers
vectors
printing
arthur
crust
wheels
densely
##nal
90s
trusted
graffiti
forgot
editorial
relied
noticed
roy
1973
govern
##iques
brooks
offset
##lto
therapeutic
bray
exhibits
wholesale
demeanor
unsuccessfully
bumper
tidal
glacial
##tour
exhibition
encyclopedia
interlude
lighter
rhino
matched
sniff
ledger
consumer
porte
archibald
dresses
##olo
heroism
coated
##bat
disgusted
##ila
pere
indoors
##rgeon
phil
churning
heels
regiment
selecting
doubtful
fog
farm
dangers
lemon
fai
##anov
randolph
dire
len
##ien
##zai
cream
##lish
writes
caused
##lita
catalog
##etto
figuring
##ator
##ime
##quest
email
120
admiration
71
##chemical
kazan
reversal
wives
theorist
pig
mitch
##roi
jules
##rne
leagues
wells
romeo
coordinated
implied
starter
##gu
furious
implications
granted
stroked
snapping
chung
##rol
focusing
##cturing
concerning
lds
pamela
startled
1959
godzilla
electro
##cute
yeah
plea
democracy
##rts
hardest
##ited
hog
australian
utilizes
swing
playboy
corpus
boston
augustine
floyd
alexander
barred
nationalism
denmark
amidst
wealth
##mity
environments
26
verse
##ees
react
exceptions
reconciled
##veda
teasing
immortal
theology
##hani
##rations
dogg
depicted
weaver
prehistoric
hiv
ot
exploits
jose
discussed
gaunt
crowded
cities
refugee
facts
##listic
translating
olympia
ownership
stripe
maguire
restored
complaints
cameras
##lyn
households
observe
pray
##vie
berkeley
woolf
clarissa
##ay
angela
prima
donna
##pia
giggling
etched
##just
practitioners
disappears
whereas
dazed
photographer
stance
les
finishes
depending
fairies
responses
consume
##bang
lending
capitalism
doug
colleagues
beijing
ib
siren
intervention
astronauts
cabins
razor
tuning
intra
##ctable
##color
vengeance
metro
strategies
alias
nano
led
nadia
1899
thump
##ular
stacy
##oteric
developers
tourism
hades
##rso
tau
sunday
sanders
explanations
1950
doris
##yte
limb
protecting
cub
boxes
magnolia
aided
unemployment
sailor
blush
fabian
envelope
##nta
##iom
##yre
tex
northern
watches
sorcerer
prepared
warlord
marker
chilled
forwards
necessity
towers
subsequent
curl
secretly
##wheel
abbas
##aday
separates
hammering
##dates
practical
overnight
persecuted
petite
neglected
##ciation
wounded
wounding
rejection
empowered
coating
drumming
amir
fleet
yong
dishes
beasts
##ret
sofia
dispatch
##brook
aba
rests
trumpet
immune
eponymous
1980
lingered
asking
answering
steadily
corbett
climbing
steps
occurs
##rak
orthodox
sparked
couch
sven
voiced
trusts
stallion
##ats
formulas
civil
residences
displacement
##uk
stat
##train
profits
flee
inflicted
specialized
float
##istles
recalling
captives
imagining
survived
suppression
hush
transit
hooker
forever
funk
alternatives
readings
av
##cular
extant
civilization
rejects
patent
suicide
terri
plates
march
surrounds
grip
requiem
hermitage
mischievous
##odle
reporters
relocated
june
surfer
moon
bills
dominant
arriving
##ics
52
helene
##asia
highways
ou
beck
miscellaneous
explaining
georgia
hints
stinging
governance
hierarchy
continually
frenzy
##ops
##eno
geneva
##obe
spanish
training
bless
pas
compositions
accommodate
compelled
stake
invitation
dealt
##cola
raked
seeds
##valent
rendition
jacobs
jeremy
establish
components
brent
sylvie
##eves
widen
continent
entries
orleans
infinite
doctor
emergency
lia
##nin
buffet
motown
judgment
rosario
animator
##farlane
pete
graduate
expand
undergoing
##rien
brody
welfare
establishing
##win
##kle
gambling
rolled
##cking
answered
##sable
contribute
haunt
bees
residents
temporal
tease
ballast
ely
##sian
fields
warnings
##rst
safely
tools
zen
sometime
este
##graphic
battles
derry
cascade
allison
##hman
differently
##elli
electoral
underwear
misleading
usher
##tort
##nified
mosque
maiden
wat
finishing
restless
dice
pandora
wage
predators
tommy
booths
evenly
stanford
injected
serbian
dotted
regrets
wraps
shiny
dictator
madman
variable
ellis
addicted
##lp
##rase
updates
unlock
attracts
##sight
peaked
wed
iteration
baird
subsided
##rra
elderly
patting
##break
lighted
inquiries
shoving
rubber
96
grandson
##hner
##ella
hart
kathryn
prominence
mafia
##bags
assignment
##water
nod
enemies
needing
##cats
malls
##tage
underway
arising
quinn
pirate
notation
##yer
dynamite
slides
discuss
converted
roth
plan
##asse
counting
covering
##bird
##walk
freaking
cloudy
marcus
dick
##bbling
tnt
stockings
reid
addiction
##tner
attachment
##ml
vicar
bathing
admiring
fades
cycle
invested
contain
eleven
cousin
##fires
##ries
pedro
unwilling
##ouse
dorm
obligations
plato
##pathy
clothing
elves
covered
gesturing
##bn
entering
stifled
fled
nike
rebellious
lured
amin
barriers
leaning
remained
anarchy
pork
fools
chapter
represent
##dden
##gical
renewal
##suke
unfair
sportsman
reyes
handicapped
wrists
jesus
honors
independence
##kie
evangelical
tome
paranormal
##upt
##mbit
fugitive
altered
eliminating
loaf
explodes
lounge
##uka
reginald
mighty
harp
breasts
immortals
presses
becker
##ricted
tighter
firm
##tr
rosemary
frankie
detachment
daddy
telenovela
1986
harlem
hepburn
confines
rei
famed
captive
##mies
arkansas
consists
5th
respectively
impatiently
sausage
##ods
carousel
colin
francois
##rle
trance
bullet
sunk
onion
detention
ward
##jack
sales
##side
forty
53
romero
commune
##ites
spreading
##ritan
electronic
##van
hardwood
assign
debuts
ut
parachute
##bery
homer
highland
compulsion
pledge
lacey
radio
anal
symbols
amc
##hang
professor
tracking
girlfriends
babies
infants
##pop
##ota
luc
mrs
satan
mana
##hema
##qa
harmed
marshal
chimney
stacks
##vani
situ
##tten
##his
##tica
heartland
markers
locus
horde
##num
##j
monkeys
curve
##gated
blasting
genocide
skipped
jang
vicente
##nda
kidnap
disclose
knitting
conflicting
serb
antique
##rington
shares
haute
discount
benevolent
dom
occasion
##osi
##erate
contributes
shortage
giles
disapproval
ting
royals
cases
##oun
acknowledging
emil
saigon
rama
1994
##ovic
chester
##hu
##tte
mistakes
nobility
weddings
##zza
meeting
interfering
gauge
renaissance
sydney
harbour
entitled
causes
##abi
1933
optic
worker
delayed
toxic
haired
palestinians
fairness
launch
macdonald
mastering
carter
mobility
ae
##coat
lover
mario
##vara
josh
intrigued
louise
subscription
magazine
jiang
adapt
##hta
fourteen
ferris
mein
barr
sorts
insurrection
requirement
##liest
##oft
celebrities
synthetic
towering
eighties
cooks
arctic
sergio
leone
rope
maids
solemnly
nan
ongoing
nowadays
apology
127
##vira
##yang
standing
##air
whitaker
controlling
tattoos
catalytic
perspectives
ideological
invisible
clears
promotes
ape
##mond
1940s
pierce
slowed
nak
##ata
societal
nancy
tully
hare
cunningham
occupational
##bus
anomaly
##lard
jacqueline
statement
transitions
commander
curtain
##nting
##ppel
##gang
shut
acceptance
slave
hatfield
hicks
progressive
institutional
slavery
falcon
os
augmented
##vies
armenians
1915
founding
##iy
intimately
aaa
ads
periods
##personal
##pac
wealthy
##ania
fred
horns
monte
greed
mater
asylum
jolted
survives
affects
geographical
hymn
##writer
teenager
croatia
ridley
1930s
##nostic
germany
democratic
weimar
republic
##rative
schultz
spec
1992
ali
sip
wines
alongside
carlos
##nad
##illo
voyage
roughly
nursery
spells
orientation
##koff
rubin
shouts
underworld
nationalist
##inating
##sol
##olved
jockey
ling
powder
whites
spectrum
italy
painters
lays
perceptions
margot
exposed
finn
labels
stranger
recognition
168
instability
comparing
##ored
siblings
vega
flags
eisenhower
seventeen
georgian
knight
thou
examining
virtual
thereafter
##linger
woodland
sob
moisture
stricken
violinist
motorcycles
yi
regeneration
##bos
filipino
hospitals
courts
tuba
dwarf
##ways
breach
styx
strips
boosted
operating
embark
secular
blunt
aboriginal
samuel
##eh
minus
##yk
pc
stability
height
mp
cd
ceo
museum
clements
unto
ry
boyd
##tch
dating
##rdo
ia
tomatoes
bing
glazed
approximation
cuba
inversion
panorama
blows
macy
asked
belief
77
advanced
battery
##flict
poised
inspector
alarms
##gga
respective
alter
distinguishes
heading
enveloped
sample
##ugh
abbreviated
judaism
clicks
halftime
interchange
abilities
sellers
anton
criterion
jock
isolated
cats
jungle
affluent
dams
rack
##ets
castles
virus
##etta
roses
hmm
##een
olds
##nik
sharks
penned
remorse
simpler
surveyed
##mania
ministers
worrying
shall
guardian
avon
custom
##ended
avengers
organize
encountered
description
participation
temper
informs
chong
zu
abraham
paramount
imprint
sewer
rats
##face
dwellers
contend
rear
angeles
ethan
tempted
##iter
genevieve
ile
faso
joshua
snuck
joao
simpsons
robots
motifs
dissipated
leaf
accompanied
##scribe
##uld
##iled
motorized
scenarios
clothed
synagogue
prayer
castle
sky
paces
prevalence
##ently
##ello
garth
salaries
initially
vie
##utable
exposing
icy
1991
cone
accessibility
versa
echo
dump
##lings
transplant
soil
shores
natives
cards
##mmy
##gers
##rling
whistle
werewolf
april
drawers
hood
troll
##hil
digitally
innate
flattened
puppy
frowns
##vos
bastards
behaviour
##ntly
gregory
spies
template
aircraft
carrier
##tia
hem
begs
fearing
gilmore
attractions
advent
wah
##lberg
newton
rosenthal
showers
kramer
bentley
hudson
##late
convenience
judy
deploy
coarse
codes
##mx
rider
##mental
threads
##ose
pregnancy
spelled
dod
##ija
boards
deposited
johnnie
scholar
dan
shawn
98
islanders
katherine
bulk
1987
roc
vanished
ritual
facade
ryder
##llation
##xing
handicap
kun
stride
demographics
boats
tracks
calculus
theological
rainy
buyers
armenian
faded
smackdown
##jar
pose
##isha
kincaid
descriptions
##zi
acres
uncertainty
amassed
trading
blushing
##mpt
peer
##ulia
##bbing
justine
andre
descend
utah
##rret
scandals
occurrences
270
lay
##neas
##ford
jae
eun
annual
##vier
##hit
grange
hovering
##tc
xiao
##shu
##mined
fis
chemicals
strategy
alfonso
findings
1979
##eria
tune
78
continuing
consumers
judith
bedroom
trinity
1990
automatic
gunfire
##tens
##inkles
lux
spaceship
launching
judging
forge
lately
photographs
instructor
##wley
planned
##lford
brett
rail
rehearsals
##shot
##lho
##lland
victor
rosa
##ssion
fraser
otto
glance
##cheon
kia
africa
heidi
##pone
convinces
shifts
casualties
rogers
sexes
warren
1972
##nel
shells
##rard
thus
recreated
griffin
coastal
underwater
directive
costs
halo
hut
##chin
##anza
interact
hai
tres
##nna
nic
representing
rudy
lodge
##hei
mainland
15th
graduation
colonial
##ago
##nism
jerusalem
wedge
berg
tchaikovsky
campbell
ark
claire
merry
##rse
tunis
resolved
handgun
seaside
fortunately
greg
##founded
elliptical
loops
began
##sby
##oin
##lined
edmund
greta
paula
1971
jun
##bara
##rte
##eil
##rge
lipstick
christine
martyr
portugal
activists
apes
venus
tightly
fertility
friedman
1970
##tain
mounts
blake
duties
yang
swirl
studies
patriarch
debating
societies
cave
commercials
steamboat
kangaroo
initiation
rite
cook
port
##hole
##ological
dominates
civilized
##rium
pascal
sue
peg
##birds
skirmish
##bine
balloon
ropes
clan
supplied
latino
hobby
forrest
monroe
arise
##ump
scarlet
aiming
gymnastics
invaders
agreement
drowning
##rave
seth
##oko
slips
51st
##ffi
tiger
surfaces
reactive
theo
##riz
rome
armenia
counterpart
wes
##monium
##ulator
malone
fifties
condo
sweep
shortest
grounds
stalked
hushed
horton
evolving
psychiatrist
beside
printed
parting
jeopardy
##burn
clutches
obstacle
##toy
dew
##ades
officially
shan
##km
##sz
femme
stern
novelist
rover
shave
topping
##acle
biblical
spawn
channels
burke
##eur
vote
smoothed
zeus
birds
senegal
ken
puzzles
routinely
gears
mantra
gil
deer
##lance
##lets
hr
stormy
blinding
mca
inmates
calculations
##nen
winged
##ants
chalk
citizen
lantern
summary
hon
longevity
##ogen
##mel
foo
yun
snacks
observer
##lane
##alo
sweating
tennessee
remade
doe
unseen
resides
37
##ffin
trey
tentative
ivy
highlights
zoom
tyson
##lding
command
##llary
products
70
incidents
##stituting
starr
depart
exclusively
##eum
upside
ismail
enchanted
maria
carey
spectators
contrasts
sling
##ala
featherweight
reigns
